10101111 01100010 10110100 
10101101 00001011 00000001 
01001100 10101111 10100010 

01101010 00100010 01100001 
00000011 10111101 00101111 
10000111 10100100 10101110 

10000011 01011011 01010011 
11011010 11110110 11110011 
01110110 11101001 00010100 

10011110 00100110 01111000 
11100110 00000001 11000010 
10000000 10111110 00010010 

11000010 10011001 00011010 
01011001 00001001 11110001 
10010111 01110000 01110010 

10000111 10110100 01001000 
11101001 11111000 00111000 
11100101 01001000 10110100 

00001111 00010000 11101001 
11100000 10000110 11011010 
10011000 01001111 10100000 

11001111 11100111 00001010 
11000001 00100010 01010000 
11011000 11100001 11110001 


00101100 10010110 11111101 
11111011 01111011 10001110 
11011001 10111011 00110110 

00000011 11110001 10101000 
01011111 01110010 11000101 
10001100 00100001 10101100 

10101110 00101100 10010011 
00001010 10011011 01111100 
01010010 10110101 10110101 

00011100 01110011 10001100 
11111010 11011001 01010000 
11010000 01001000 11011001 

10100001 01000100 10011100 
00100111 10000110 11111011 
11111110 11011011 00101110 

01000001 10011000 10101111 
10011110 11001001 00111101 
00101001 00011101 01100011 

10101000 10111110 01000000 
11011101 10101010 11000111 
11000100 00111100 11100011 

00111111 11111100 00101000 
01000001 10000011 00101001 
10000011 01101100 00010110 


10011111 10111011 10011101 
01010111 01110100 01111100 
00101110 11110010 10111101 

01111111 11000101 11101110 
01101100 00111111 10100111 
10110101 10011110 10011011 

01111001 01110001 00101001 
00001111 11000101 10100100 
10111101 10001100 00011100 

11001101 10111000 11111010 
10011000 10100110 10000010 
10001010 10001111 11101000 

10100001 01000001 10001111 
01001110 00010110 11011100 
01101101 10001110 01010010 

10100111 01010110 11111001 
01110101 10110010 10001001 
00000101 01011100 10010110 

10010110 10100100 00010110 
10101011 01101100 01001000 
11101111 11100011 10000110 

01111111 11001010 00101001 
00100001 10101000 00001000 
10101110 11100100 11100111 


11001100 10110110 11110000 
00111110 10001011 01110111 
10000011 00001000 01110111 

11001110 10000001 01000000 
00110110 00100111 01010000 
11111111 11011010 11001100 

11001010 10011101 11011101 
01000001 00001101 01101101 
10100111 01010001 11111111 

10101111 00100011 00101111 
01110001 10011010 10000110 
00111011 11110110 10010010 

10010011 01000011 10010100 
01100110 01110010 10001111 
10011100 00110100 11100011 

00111011 01110110 00011111 
00011100 01010001 01110011 
00000010 01100110 11010111 

10111111 00111011 01000011 
11100000 11111011 10100111 
00000111 01001010 00001101 

10001010 00010111 11011011 
10001010 11011110 11000010 
11001000 10010100 11101010 


10110011 11001011 11100101 
00110101 01101010 00011011 
10011000 00001011 11000101 

11001101 11101010 10000000 
10011010 00010100 01000111 
01110011 10111101 01110011 

00110001 01101111 00001000 
10011101 01111100 00001101 
00101001 10111011 00010001 

10110001 11100101 10000010 
10110001 00111001 00111100 
01110001 10001001 01010111 

10101101 01101011 00110001 
11101100 00110101 10001101 
11110001 11110110 00101100 

10100110 00110000 10000001 
10100001 11011011 10111000 
10001111 01101100 10111010 

01000010 01011101 00101010 
01110010 10110000 00101111 
00011001 00111110 10010101 

11110101 11001010 11111011 
00101010 11001111 00111001 
01000110 11110100 10000101 


11001111 10001001 01001101 
01011000 11000100 10111011 
00110100 10110111 01000111 

10110010 01110001 01001101 
11011010 11010010 11110111 
11101110 11100000 00010111 

11101101 00111111 01000000 
00111000 10101101 01111101 
10100011 00100001 00000001 

10000111 10110010 11000000 
00001100 01111010 10001100 
00011001 11001011 00001001 

11101111 00100110 10000101 
00111000 10111001 10010100 
00010101 10011010 10100010 

10000001 11001101 01000101 
00000100 10001001 00001010 
10001111 00111100 01110111 

00101000 01111100 11110110 
00011110 01100101 01111010 
11000000 01010010 01100100 

10101001 10101001 01000101 
11001010 00001010 10011110 
11110110 10101101 01001110 


11011100 00001001 10001100 
10101011 00110101 10010111 
10101001 11001000 00000010 

10101101 11010110 10000011 
01100111 11001100 11100010 
10010000 11101001 11010101 

00000010 01001101 11000111 
00100011 01010100 11010100 
00000111 00101010 01010001 

01010010 01011111 01111110 
00100110 10100011 01100101 
01110000 11010111 11001111 

01010000 10101011 10100111 
11011000 11001010 11001100 
11111101 11000111 00011001 

10001001 11010111 11110101 
10100111 10000111 11000010 
01010001 00101111 01011111 

11100101 11111111 00111001 
01100101 00110001 00001111 
11000011 00111111 00101110 

10000101 10100001 01110011 
00010011 10000010 01011001 
10111111 11100000 10111111 


00111011 01111100 10001101 
00010001 10010100 11110111 
00110011 10110101 11110010 

11100110 00110000 11101101 
10110111 01001100 10001110 
10000010 00110011 00111110 

11000000 10101010 00011111 
00010101 10100101 11111101 
11100011 10001011 10011110 

00010110 10011001 11011011 
10010111 00110011 10000010 
11011111 10010101 11101110 

01110110 11110001 10111011 
00111110 01010110 00001001 
01001010 01100100 11000010 

10111110 00110001 11110010 
10110111 11111100 01000110 
10011011 01010000 01111101 

10010101 01001010 01111001 
10011010 11001000 01010010 
11000111 01111100 01101000 

01111000 01101110 01101101 
11111100 01101011 11011000 
01000111 11101110 11011101 


