11001110 10010111 11010011 00110011 
01001100 00010110 11000010 01010101 
11001011 10111001 11101001 00110010 
00010111 11111111 00110010 00001100 

11101100 11100010 01011110 10010111 
00111000 10010000 11101010 00110111 
01110110 11100000 10010100 11101000 
11100010 00101100 00001111 10111100 

11110001 10010000 10010010 10011000 
10101000 10101110 01010011 00110101 
10000111 11110010 11100001 10001101 
01110101 00001110 01101111 00111100 

10010100 01100100 01101010 10000100 
11000111 10001001 00011100 01000000 
00000100 01111000 11101010 00100110 
00010110 00001000 01101001 11100100 

01010000 01100110 11100010 11111000 
00101000 11011011 11011111 10000111 
11010010 11100010 11111100 10010011 
00010000 00100101 11001000 01111000 

00101011 11111000 11010110 10101110 
10110110 11000010 11011000 01111100 
10011010 11100010 01100010 01001010 
10010111 11011110 00111101 10100011 

00110010 10011111 00001001 10110110 
01000000 00100100 00001111 01010011 
00000111 10001010 01001010 01110110 
11000100 10000000 01100001 00100111 

10100011 01110001 11000111 00011110 
11100011 11111101 11010111 00010100 
11111100 10100010 01111000 00111000 
00011111 10011101 10010001 11100000 


00001100 01101100 01100000 10010011 
01000101 10010010 00101001 11100110 
11011010 01110011 00000110 01010100 
00000000 11101110 01101011 11111101 

11001000 00110100 00001010 00101010 
10111101 00110110 01100111 01111111 
00011111 10111011 11100001 01011111 
10100011 01010100 00001111 11111101 

01101110 01101110 01001010 01111100 
00101000 11111101 10010111 11000111 
11100111 11100110 10000101 00111001 
11110001 00100101 00101011 10101100 

01001001 00001111 01101111 10011101 
00111001 00110010 10110000 10110100 
00101011 11101110 11100111 00011000 
00000010 01010100 10001100 10111111 

00111110 01110000 01110101 11100101 
00000010 00101000 10100100 11110001 
01001000 10100100 11111001 11101001 
01111010 00010001 01011101 11111110 

01100111 10011100 00111000 00100010 
00000101 00011001 00101101 01010110 
11011001 00111110 00101110 11001001 
01101110 01010001 01110100 10111100 

00101101 11010110 10010000 01100000 
10010001 11110011 00101011 00111011 
11111110 00101011 11100110 00101001 
01001101 00101100 10110011 10101100 

01111011 11011101 11110001 11110001 
10001001 11010010 10110110 10000111 
11011110 10011000 01111100 10110101 
11101101 10001100 01100000 11010100 


00111110 10100001 10101100 10011000 
11000011 00111101 10100011 01101100 
01000110 00010001 00011011 00110110 
00111101 11101101 00111110 10111101 

00001111 00110110 01010010 00000010 
01000001 11011110 01011000 01111010 
00011101 11011001 01100100 10000100 
10001111 00100100 11000011 01101101 

01000000 00010001 11001010 11000101 
11110001 10000000 10000110 10110101 
01011100 00101011 01010000 11111000 
11001111 01110100 00111001 00000001 

01100000 01111010 10000110 11000011 
10010101 01100010 10000100 00111100 
10100110 11101001 11000100 01011110 
10111001 00111110 00100010 11100000 

11101101 00111000 00111100 11001100 
10101101 10010000 01110010 10100110 
00110110 11100001 01001000 00010010 
01101100 11001101 10010010 00101111 

01110011 10110100 10111101 11000100 
00001011 10010100 10111001 00101100 
10000101 00010100 00110111 01101111 
00000100 00101101 00011000 01110110 

10101101 11011111 11100110 01100010 
01010000 10110010 10101101 11010100 
00100011 10011110 11110011 11011100 
01111010 11101100 11101000 11010100 

10101000 10111110 00000101 11011011 
01001011 11000111 11110010 11101110 
00011000 01101101 10111111 01110001 
00100011 01100010 10001001 10010111 


11000000 00111111 01100001 01001100 
01010011 01111000 11110011 00100000 
01100110 00001000 00101001 10001010 
11011001 01011111 11110111 10000110 

00001001 11010001 11010010 01001000 
10000000 10010100 10100010 11011000 
11100001 00110001 10000001 01111011 
01110110 01001101 11001000 00101101 

10011110 01110110 10000110 10111000 
11111101 10000100 10010101 00100011 
11000100 00001111 10011100 00010111 
10110111 10000101 00100001 10110110 

11101111 01011110 10011110 01000100 
01001110 00111101 00111101 01110010 
00111010 01001100 11010101 01001101 
10000111 11101010 00010100 00111101 

01111110 01111011 01001110 01101011 
00101000 01010001 11000100 10011110 
10111101 01011110 00011000 01111100 
00101110 01001001 10110000 01100001 

11011000 10000011 10101111 01100000 
10011000 01011001 11111110 11001101 
01101001 11000100 01000101 00001100 
10011000 10111000 10010010 01110010 

10011101 01001100 01001000 11010001 
10010110 10011111 11001000 11011001 
10100101 01001000 11010000 11110011 
11011010 11011101 01001100 01000001 

11001110 11010110 10011011 11001001 
00011101 00100101 01101110 10011101 
11111011 11110000 01110111 10000001 
01111100 10010000 01001001 01100000 


10001001 01010010 11101110 00001100 
10011000 01101011 01101110 11010011 
11000010 10100100 10100111 11011110 
00110111 01001111 10101100 10110100 

00111111 10011100 10000101 11010100 
11100000 01101000 00010010 00010111 
11100110 11000001 10100101 01011000 
01101011 01110100 00110110 11011111 

10001011 10000010 00100111 11001000 
00001001 10100100 10101011 11011001 
10100101 00000111 00110110 11000100 
11101110 00101110 01111001 10101011 

10100111 10100010 11010011 10111011 
01000101 10111101 11001100 10101100 
11100111 01010011 01011011 10001000 
10100110 01111000 10000000 11110011 

11101010 11110011 10100010 10010010 
01111000 01001000 10101001 10010001 
00000010 01110000 01011000 10111001 
01001100 11001001 10000100 11011001 

10011101 10100000 11110110 00100010 
01000011 01101011 01011110 01010000 
01001010 11000111 01100101 01101111 
01001011 11111101 00001100 00110110 

00010010 01110110 00001010 01110110 
01001001 10011001 01110011 00001011 
00001101 10001010 10111100 11110101 
11100010 10101011 10001001 11110010 

00101111 11100110 00110000 10100101 
11010010 00101110 10111101 11010100 
00000110 11110101 11001110 01011101 
00110000 11111111 11011101 11011101 


00000010 11000011 00010110 01011101 
11010010 10001010 01000001 01001010 
11001001 11100100 11001111 01011000 
00100011 11101101 00111001 00101110 

11000011 10101101 01110111 11101000 
00010001 11111000 01000010 11110001 
00011110 00001011 10010000 10101100 
00000100 01101011 00011100 11010001 

00011001 11111101 01111000 01011101 
10111110 11111111 10000001 01001101 
00000010 01100000 01111000 00011111 
11000000 01111111 00001010 11110010 

10010100 11000110 01101111 00110011 
11010100 00000000 01100100 00000000 
10101100 11001001 10011000 11110100 
10010011 01001010 10100010 01000110 

10111110 01000010 00100010 10011001 
11110001 00001101 01000001 01101100 
00001001 00010111 11011001 00110011 
10110111 11001001 00101001 01010000 

00100000 10100000 11100110 01111111 
10001110 11000111 10010111 01100000 
10100100 11011110 11000111 10001010 
11001010 11010110 10000111 11100111 

01001000 10000110 00111100 10110101 
10101100 11111110 01100101 11110110 
01000100 00000101 11110110 11000011 
11001010 00111001 00010000 00011111 

10101010 01111001 11101110 01011110 
01100111 00111011 01100010 00110100 
11011011 11000010 10100001 10110110 
11011011 01010011 11010111 00001100 


10110011 10111111 10100111 01110110 
11111001 01001001 01001000 00111111 
01000010 10010101 11101011 01110101 
00011000 01010101 10101101 11111001 

11011110 11111100 01111010 10111101 
10110001 10101110 00110111 01110111 
00111100 01100101 10110011 11001011 
01110110 01000000 01111011 11100011 

01010010 10011011 10100010 01010101 
10100100 00111000 11110100 00000101 
10011000 00101011 00000100 01000000 
11000001 11100100 01001101 10100101 

10110000 10100011 10100111 00111001 
01111000 11000000 10000010 10110100 
01011111 11100110 11100100 10001110 
10011001 01001010 10010011 11000110 

11011001 01000111 10010111 11100100 
10100000 10000111 01110010 01111110 
10001010 01000011 11011110 10110001 
01110000 00100110 10000011 10101001 

00101010 11111000 01101010 10101111 
00011110 11011110 00111100 00010100 
11111010 10111000 10010111 11001010 
10100000 10111110 11110100 00101010 

11010110 10000111 11101010 11100001 
11100001 11000010 11111010 01101110 
11111011 10101100 11110111 11010001 
11010000 00101011 11111001 01110101 

11111111 11011111 00010010 10110000 
01100110 11011001 01101111 00001010 
00110111 11010001 00001110 11011010 
00011111 10111101 01111100 11010111 


01100001 01000000 00100110 00100010 
10001000 10100000 10101110 11000010 
01001111 01110101 00010001 01100010 
00000010 10101100 10100101 10010100 

10110100 01001001 00000000 00010110 
10100111 11101101 01011100 11110111 
00011011 10111011 01011101 01011001 
01111000 01000110 11010000 10001101 

11100101 10111101 00110000 01111011 
01110000 11100010 11011010 00110110 
11011001 01100001 01010100 00101011 
01010101 01111100 10011101 01000100 

01010101 10100011 11000101 01011100 
10000110 01101111 01111101 11110011 
11101001 10100000 10100001 10001011 
10111110 11110001 00010011 11100101 

10011111 10000101 00111011 11100111 
10001100 00110011 10100000 01000010 
10111010 11111101 10101101 00001010 
10101101 10111101 10111111 01001000 

00011111 10100101 01110001 11011101 
11110101 00011111 11010111 10000110 
00101100 00000101 10000101 01111101 
00100010 11001000 11101001 01110101 

10001010 10011101 10001001 00000001 
00111100 10111111 11111110 11010010 
01100100 10100111 11101000 01001000 
00101001 10011001 10111111 11101011 

00100101 11100110 00110011 00011100 
11111011 00000100 11101111 11011101 
11110100 10001011 11010001 11011011 
00101111 11000000 11011011 11001111 


