11001110 01001100 11001011 00010111 
10010111 00010110 10111001 11111111 
11010011 11000010 11101001 00110010 
00110011 01010101 00110010 00001100 

11101100 00111000 01110110 11100010 
11100010 10010000 11100000 00101100 
01011110 11101010 10010100 00001111 
10010111 00110111 11101000 10111100 

11110001 10101000 10000111 01110101 
10010000 10101110 11110010 00001110 
10010010 01010011 11100001 01101111 
10011000 00110101 10001101 00111100 

10010100 11000111 00000100 00010110 
01100100 10001001 01111000 00001000 
01101010 00011100 11101010 01101001 
10000100 01000000 00100110 11100100 

01010000 00101000 11010010 00010000 
01100110 11011011 11100010 00100101 
11100010 11011111 11111100 11001000 
11111000 10000111 10010011 01111000 

00101011 10110110 10011010 10010111 
11111000 11000010 11100010 11011110 
11010110 11011000 01100010 00111101 
10101110 01111100 01001010 10100011 

00110010 01000000 00000111 11000100 
10011111 00100100 10001010 10000000 
00001001 00001111 01001010 01100001 
10110110 01010011 01110110 00100111 

10100011 11100011 11111100 00011111 
01110001 11111101 10100010 10011101 
11000111 11010111 01111000 10010001 
00011110 00010100 00111000 11100000 


11001110 01001100 11001011 00010111 
10010111 00010110 10111001 11111111 
11010011 11000010 11101001 00110010 
00110011 01010101 00110010 00001100 

11101100 00111000 01110110 11100010 
11100010 10010000 11100000 00101100 
01011110 11101010 10010100 00001111 
10010111 00110111 11101000 10111100 

11110001 10101000 10000111 01110101 
10010000 10101110 11110010 00001110 
10010010 01010011 11100001 01101111 
10011000 00110101 10001101 00111100 

10010100 11000111 00000100 00010110 
01100100 10001001 01111000 00001000 
01101010 00011100 11101010 01101001 
10000100 01000000 00100110 11100100 

01010000 00101000 11010010 00010000 
01100110 11011011 11100010 00100101 
11100010 11011111 11111100 11001000 
11111000 10000111 10010011 01111000 

00101011 10110110 10011010 10010111 
11111000 11000010 11100010 11011110 
11010110 11011000 01100010 00111101 
10101110 01111100 01001010 10100011 

00110010 01000000 00000111 11000100 
10011111 00100100 10001010 10000000 
00001001 00001111 01001010 01100001 
10110110 01010011 01110110 00100111 

10100011 11100011 11111100 00011111 
01110001 11111101 10100010 10011101 
11000111 11010111 01111000 10010001 
00011110 00010100 00111000 11100000 


11001110 01001100 11001011 00010111 
10010111 00010110 10111001 11111111 
11010011 11000010 11101001 00110010 
00110011 01010101 00110010 00001100 

11101100 00111000 01110110 11100010 
11100010 10010000 11100000 00101100 
01011110 11101010 10010100 00001111 
10010111 00110111 11101000 10111100 

11110001 10101000 10000111 01110101 
10010000 10101110 11110010 00001110 
10010010 01010011 11100001 01101111 
10011000 00110101 10001101 00111100 

10010100 11000111 00000100 00010110 
01100100 10001001 01111000 00001000 
01101010 00011100 11101010 01101001 
10000100 01000000 00100110 11100100 

01010000 00101000 11010010 00010000 
01100110 11011011 11100010 00100101 
11100010 11011111 11111100 11001000 
11111000 10000111 10010011 01111000 

00101011 10110110 10011010 10010111 
11111000 11000010 11100010 11011110 
11010110 11011000 01100010 00111101 
10101110 01111100 01001010 10100011 

00110010 01000000 00000111 11000100 
10011111 00100100 10001010 10000000 
00001001 00001111 01001010 01100001 
10110110 01010011 01110110 00100111 

10100011 11100011 11111100 00011111 
01110001 11111101 10100010 10011101 
11000111 11010111 01111000 10010001 
00011110 00010100 00111000 11100000 


11001110 01001100 11001011 00010111 
10010111 00010110 10111001 11111111 
11010011 11000010 11101001 00110010 
00110011 01010101 00110010 00001100 

11101100 00111000 01110110 11100010 
11100010 10010000 11100000 00101100 
01011110 11101010 10010100 00001111 
10010111 00110111 11101000 10111100 

11110001 10101000 10000111 01110101 
10010000 10101110 11110010 00001110 
10010010 01010011 11100001 01101111 
10011000 00110101 10001101 00111100 

10010100 11000111 00000100 00010110 
01100100 10001001 01111000 00001000 
01101010 00011100 11101010 01101001 
10000100 01000000 00100110 11100100 

01010000 00101000 11010010 00010000 
01100110 11011011 11100010 00100101 
11100010 11011111 11111100 11001000 
11111000 10000111 10010011 01111000 

00101011 10110110 10011010 10010111 
11111000 11000010 11100010 11011110 
11010110 11011000 01100010 00111101 
10101110 01111100 01001010 10100011 

00110010 01000000 00000111 11000100 
10011111 00100100 10001010 10000000 
00001001 00001111 01001010 01100001 
10110110 01010011 01110110 00100111 

10100011 11100011 11111100 00011111 
01110001 11111101 10100010 10011101 
11000111 11010111 01111000 10010001 
00011110 00010100 00111000 11100000 



11001110 01001100 11001011 00010111 
10010111 00010110 10111001 11111111 
11010011 11000010 11101001 00110010 
00110011 01010101 00110010 00001100 

11101100 00111000 01110110 11100010 
11100010 10010000 11100000 00101100 
01011110 11101010 10010100 00001111 
10010111 00110111 11101000 10111100 

11110001 10101000 10000111 01110101 
10010000 10101110 11110010 00001110 
10010010 01010011 11100001 01101111 
10011000 00110101 10001101 00111100 

10010100 11000111 00000100 00010110 
01100100 10001001 01111000 00001000 
01101010 00011100 11101010 01101001 
10000100 01000000 00100110 11100100 

01010000 00101000 11010010 00010000 
01100110 11011011 11100010 00100101 
11100010 11011111 11111100 11001000 
11111000 10000111 10010011 01111000 

00101011 10110110 10011010 10010111 
11111000 11000010 11100010 11011110 
11010110 11011000 01100010 00111101 
10101110 01111100 01001010 10100011 

00110010 01000000 00000111 11000100 
10011111 00100100 10001010 10000000 
00001001 00001111 01001010 01100001 
10110110 01010011 01110110 00100111 

10100011 11100011 11111100 00011111 
01110001 11111101 10100010 10011101 
11000111 11010111 01111000 10010001 
00011110 00010100 00111000 11100000 


11001110 01001100 11001011 00010111 
10010111 00010110 10111001 11111111 
11010011 11000010 11101001 00110010 
00110011 01010101 00110010 00001100 

11101100 00111000 01110110 11100010 
11100010 10010000 11100000 00101100 
01011110 11101010 10010100 00001111 
10010111 00110111 11101000 10111100 

11110001 10101000 10000111 01110101 
10010000 10101110 11110010 00001110 
10010010 01010011 11100001 01101111 
10011000 00110101 10001101 00111100 

10010100 11000111 00000100 00010110 
01100100 10001001 01111000 00001000 
01101010 00011100 11101010 01101001 
10000100 01000000 00100110 11100100 

01010000 00101000 11010010 00010000 
01100110 11011011 11100010 00100101 
11100010 11011111 11111100 11001000 
11111000 10000111 10010011 01111000 

00101011 10110110 10011010 10010111 
11111000 11000010 11100010 11011110 
11010110 11011000 01100010 00111101 
10101110 01111100 01001010 10100011 

00110010 01000000 00000111 11000100 
10011111 00100100 10001010 10000000 
00001001 00001111 01001010 01100001 
10110110 01010011 01110110 00100111 

10100011 11100011 11111100 00011111 
01110001 11111101 10100010 10011101 
11000111 11010111 01111000 10010001 
00011110 00010100 00111000 11100000 


11001110 01001100 11001011 00010111 
10010111 00010110 10111001 11111111 
11010011 11000010 11101001 00110010 
00110011 01010101 00110010 00001100 

11101100 00111000 01110110 11100010 
11100010 10010000 11100000 00101100 
01011110 11101010 10010100 00001111 
10010111 00110111 11101000 10111100 

11110001 10101000 10000111 01110101 
10010000 10101110 11110010 00001110 
10010010 01010011 11100001 01101111 
10011000 00110101 10001101 00111100 

10010100 11000111 00000100 00010110 
01100100 10001001 01111000 00001000 
01101010 00011100 11101010 01101001 
10000100 01000000 00100110 11100100 

01010000 00101000 11010010 00010000 
01100110 11011011 11100010 00100101 
11100010 11011111 11111100 11001000 
11111000 10000111 10010011 01111000 

00101011 10110110 10011010 10010111 
11111000 11000010 11100010 11011110 
11010110 11011000 01100010 00111101 
10101110 01111100 01001010 10100011 

00110010 01000000 00000111 11000100 
10011111 00100100 10001010 10000000 
00001001 00001111 01001010 01100001 
10110110 01010011 01110110 00100111 

10100011 11100011 11111100 00011111 
01110001 11111101 10100010 10011101 
11000111 11010111 01111000 10010001 
00011110 00010100 00111000 11100000 


11001110 01001100 11001011 00010111 
10010111 00010110 10111001 11111111 
11010011 11000010 11101001 00110010 
00110011 01010101 00110010 00001100 

11101100 00111000 01110110 11100010 
11100010 10010000 11100000 00101100 
01011110 11101010 10010100 00001111 
10010111 00110111 11101000 10111100 

11110001 10101000 10000111 01110101 
10010000 10101110 11110010 00001110 
10010010 01010011 11100001 01101111 
10011000 00110101 10001101 00111100 

10010100 11000111 00000100 00010110 
01100100 10001001 01111000 00001000 
01101010 00011100 11101010 01101001 
10000100 01000000 00100110 11100100 

01010000 00101000 11010010 00010000 
01100110 11011011 11100010 00100101 
11100010 11011111 11111100 11001000 
11111000 10000111 10010011 01111000 

00101011 10110110 10011010 10010111 
11111000 11000010 11100010 11011110 
11010110 11011000 01100010 00111101 
10101110 01111100 01001010 10100011 

00110010 01000000 00000111 11000100 
10011111 00100100 10001010 10000000 
00001001 00001111 01001010 01100001 
10110110 01010011 01110110 00100111 

10100011 11100011 11111100 00011111 
01110001 11111101 10100010 10011101 
11000111 11010111 01111000 10010001 
00011110 00010100 00111000 11100000 



11001110 01001100 11001011 00010111 
10010111 00010110 10111001 11111111 
11010011 11000010 11101001 00110010 
00110011 01010101 00110010 00001100 

11101100 00111000 01110110 11100010 
11100010 10010000 11100000 00101100 
01011110 11101010 10010100 00001111 
10010111 00110111 11101000 10111100 

11110001 10101000 10000111 01110101 
10010000 10101110 11110010 00001110 
10010010 01010011 11100001 01101111 
10011000 00110101 10001101 00111100 

10010100 11000111 00000100 00010110 
01100100 10001001 01111000 00001000 
01101010 00011100 11101010 01101001 
10000100 01000000 00100110 11100100 

01010000 00101000 11010010 00010000 
01100110 11011011 11100010 00100101 
11100010 11011111 11111100 11001000 
11111000 10000111 10010011 01111000 

00101011 10110110 10011010 10010111 
11111000 11000010 11100010 11011110 
11010110 11011000 01100010 00111101 
10101110 01111100 01001010 10100011 

00110010 01000000 00000111 11000100 
10011111 00100100 10001010 10000000 
00001001 00001111 01001010 01100001 
10110110 01010011 01110110 00100111 

10100011 11100011 11111100 00011111 
01110001 11111101 10100010 10011101 
11000111 11010111 01111000 10010001 
00011110 00010100 00111000 11100000 


11001110 01001100 11001011 00010111 
10010111 00010110 10111001 11111111 
11010011 11000010 11101001 00110010 
00110011 01010101 00110010 00001100 

11101100 00111000 01110110 11100010 
11100010 10010000 11100000 00101100 
01011110 11101010 10010100 00001111 
10010111 00110111 11101000 10111100 

11110001 10101000 10000111 01110101 
10010000 10101110 11110010 00001110 
10010010 01010011 11100001 01101111 
10011000 00110101 10001101 00111100 

10010100 11000111 00000100 00010110 
01100100 10001001 01111000 00001000 
01101010 00011100 11101010 01101001 
10000100 01000000 00100110 11100100 

01010000 00101000 11010010 00010000 
01100110 11011011 11100010 00100101 
11100010 11011111 11111100 11001000 
11111000 10000111 10010011 01111000 

00101011 10110110 10011010 10010111 
11111000 11000010 11100010 11011110 
11010110 11011000 01100010 00111101 
10101110 01111100 01001010 10100011 

00110010 01000000 00000111 11000100 
10011111 00100100 10001010 10000000 
00001001 00001111 01001010 01100001 
10110110 01010011 01110110 00100111 

10100011 11100011 11111100 00011111 
01110001 11111101 10100010 10011101 
11000111 11010111 01111000 10010001 
00011110 00010100 00111000 11100000 


11001110 01001100 11001011 00010111 
10010111 00010110 10111001 11111111 
11010011 11000010 11101001 00110010 
00110011 01010101 00110010 00001100 

11101100 00111000 01110110 11100010 
11100010 10010000 11100000 00101100 
01011110 11101010 10010100 00001111 
10010111 00110111 11101000 10111100 

11110001 10101000 10000111 01110101 
10010000 10101110 11110010 00001110 
10010010 01010011 11100001 01101111 
10011000 00110101 10001101 00111100 

10010100 11000111 00000100 00010110 
01100100 10001001 01111000 00001000 
01101010 00011100 11101010 01101001 
10000100 01000000 00100110 11100100 

01010000 00101000 11010010 00010000 
01100110 11011011 11100010 00100101 
11100010 11011111 11111100 11001000 
11111000 10000111 10010011 01111000 

00101011 10110110 10011010 10010111 
11111000 11000010 11100010 11011110 
11010110 11011000 01100010 00111101 
10101110 01111100 01001010 10100011 

00110010 01000000 00000111 11000100 
10011111 00100100 10001010 10000000 
00001001 00001111 01001010 01100001 
10110110 01010011 01110110 00100111 

10100011 11100011 11111100 00011111 
01110001 11111101 10100010 10011101 
11000111 11010111 01111000 10010001 
00011110 00010100 00111000 11100000 


11001110 01001100 11001011 00010111 
10010111 00010110 10111001 11111111 
11010011 11000010 11101001 00110010 
00110011 01010101 00110010 00001100 

11101100 00111000 01110110 11100010 
11100010 10010000 11100000 00101100 
01011110 11101010 10010100 00001111 
10010111 00110111 11101000 10111100 

11110001 10101000 10000111 01110101 
10010000 10101110 11110010 00001110 
10010010 01010011 11100001 01101111 
10011000 00110101 10001101 00111100 

10010100 11000111 00000100 00010110 
01100100 10001001 01111000 00001000 
01101010 00011100 11101010 01101001 
10000100 01000000 00100110 11100100 

01010000 00101000 11010010 00010000 
01100110 11011011 11100010 00100101 
11100010 11011111 11111100 11001000 
11111000 10000111 10010011 01111000 

00101011 10110110 10011010 10010111 
11111000 11000010 11100010 11011110 
11010110 11011000 01100010 00111101 
10101110 01111100 01001010 10100011 

00110010 01000000 00000111 11000100 
10011111 00100100 10001010 10000000 
00001001 00001111 01001010 01100001 
10110110 01010011 01110110 00100111 

10100011 11100011 11111100 00011111 
01110001 11111101 10100010 10011101 
11000111 11010111 01111000 10010001 
00011110 00010100 00111000 11100000 



11001110 01001100 11001011 00010111 
10010111 00010110 10111001 11111111 
11010011 11000010 11101001 00110010 
00110011 01010101 00110010 00001100 

11101100 00111000 01110110 11100010 
11100010 10010000 11100000 00101100 
01011110 11101010 10010100 00001111 
10010111 00110111 11101000 10111100 

11110001 10101000 10000111 01110101 
10010000 10101110 11110010 00001110 
10010010 01010011 11100001 01101111 
10011000 00110101 10001101 00111100 

10010100 11000111 00000100 00010110 
01100100 10001001 01111000 00001000 
01101010 00011100 11101010 01101001 
10000100 01000000 00100110 11100100 

01010000 00101000 11010010 00010000 
01100110 11011011 11100010 00100101 
11100010 11011111 11111100 11001000 
11111000 10000111 10010011 01111000 

00101011 10110110 10011010 10010111 
11111000 11000010 11100010 11011110 
11010110 11011000 01100010 00111101 
10101110 01111100 01001010 10100011 

00110010 01000000 00000111 11000100 
10011111 00100100 10001010 10000000 
00001001 00001111 01001010 01100001 
10110110 01010011 01110110 00100111 

10100011 11100011 11111100 00011111 
01110001 11111101 10100010 10011101 
11000111 11010111 01111000 10010001 
00011110 00010100 00111000 11100000 


11001110 01001100 11001011 00010111 
10010111 00010110 10111001 11111111 
11010011 11000010 11101001 00110010 
00110011 01010101 00110010 00001100 

11101100 00111000 01110110 11100010 
11100010 10010000 11100000 00101100 
01011110 11101010 10010100 00001111 
10010111 00110111 11101000 10111100 

11110001 10101000 10000111 01110101 
10010000 10101110 11110010 00001110 
10010010 01010011 11100001 01101111 
10011000 00110101 10001101 00111100 

10010100 11000111 00000100 00010110 
01100100 10001001 01111000 00001000 
01101010 00011100 11101010 01101001 
10000100 01000000 00100110 11100100 

01010000 00101000 11010010 00010000 
01100110 11011011 11100010 00100101 
11100010 11011111 11111100 11001000 
11111000 10000111 10010011 01111000 

00101011 10110110 10011010 10010111 
11111000 11000010 11100010 11011110 
11010110 11011000 01100010 00111101 
10101110 01111100 01001010 10100011 

00110010 01000000 00000111 11000100 
10011111 00100100 10001010 10000000 
00001001 00001111 01001010 01100001 
10110110 01010011 01110110 00100111 

10100011 11100011 11111100 00011111 
01110001 11111101 10100010 10011101 
11000111 11010111 01111000 10010001 
00011110 00010100 00111000 11100000 


11001110 01001100 11001011 00010111 
10010111 00010110 10111001 11111111 
11010011 11000010 11101001 00110010 
00110011 01010101 00110010 00001100 

11101100 00111000 01110110 11100010 
11100010 10010000 11100000 00101100 
01011110 11101010 10010100 00001111 
10010111 00110111 11101000 10111100 

11110001 10101000 10000111 01110101 
10010000 10101110 11110010 00001110 
10010010 01010011 11100001 01101111 
10011000 00110101 10001101 00111100 

10010100 11000111 00000100 00010110 
01100100 10001001 01111000 00001000 
01101010 00011100 11101010 01101001 
10000100 01000000 00100110 11100100 

01010000 00101000 11010010 00010000 
01100110 11011011 11100010 00100101 
11100010 11011111 11111100 11001000 
11111000 10000111 10010011 01111000 

00101011 10110110 10011010 10010111 
11111000 11000010 11100010 11011110 
11010110 11011000 01100010 00111101 
10101110 01111100 01001010 10100011 

00110010 01000000 00000111 11000100 
10011111 00100100 10001010 10000000 
00001001 00001111 01001010 01100001 
10110110 01010011 01110110 00100111 

10100011 11100011 11111100 00011111 
01110001 11111101 10100010 10011101 
11000111 11010111 01111000 10010001 
00011110 00010100 00111000 11100000 


11001110 01001100 11001011 00010111 
10010111 00010110 10111001 11111111 
11010011 11000010 11101001 00110010 
00110011 01010101 00110010 00001100 

11101100 00111000 01110110 11100010 
11100010 10010000 11100000 00101100 
01011110 11101010 10010100 00001111 
10010111 00110111 11101000 10111100 

11110001 10101000 10000111 01110101 
10010000 10101110 11110010 00001110 
10010010 01010011 11100001 01101111 
10011000 00110101 10001101 00111100 

10010100 11000111 00000100 00010110 
01100100 10001001 01111000 00001000 
01101010 00011100 11101010 01101001 
10000100 01000000 00100110 11100100 

01010000 00101000 11010010 00010000 
01100110 11011011 11100010 00100101 
11100010 11011111 11111100 11001000 
11111000 10000111 10010011 01111000 

00101011 10110110 10011010 10010111 
11111000 11000010 11100010 11011110 
11010110 11011000 01100010 00111101 
10101110 01111100 01001010 10100011 

00110010 01000000 00000111 11000100 
10011111 00100100 10001010 10000000 
00001001 00001111 01001010 01100001 
10110110 01010011 01110110 00100111 

10100011 11100011 11111100 00011111 
01110001 11111101 10100010 10011101 
11000111 11010111 01111000 10010001 
00011110 00010100 00111000 11100000 



11001110 01001100 11001011 00010111 
10010111 00010110 10111001 11111111 
11010011 11000010 11101001 00110010 
00110011 01010101 00110010 00001100 

11101100 00111000 01110110 11100010 
11100010 10010000 11100000 00101100 
01011110 11101010 10010100 00001111 
10010111 00110111 11101000 10111100 

11110001 10101000 10000111 01110101 
10010000 10101110 11110010 00001110 
10010010 01010011 11100001 01101111 
10011000 00110101 10001101 00111100 

10010100 11000111 00000100 00010110 
01100100 10001001 01111000 00001000 
01101010 00011100 11101010 01101001 
10000100 01000000 00100110 11100100 

01010000 00101000 11010010 00010000 
01100110 11011011 11100010 00100101 
11100010 11011111 11111100 11001000 
11111000 10000111 10010011 01111000 

00101011 10110110 10011010 10010111 
11111000 11000010 11100010 11011110 
11010110 11011000 01100010 00111101 
10101110 01111100 01001010 10100011 

00110010 01000000 00000111 11000100 
10011111 00100100 10001010 10000000 
00001001 00001111 01001010 01100001 
10110110 01010011 01110110 00100111 

10100011 11100011 11111100 00011111 
01110001 11111101 10100010 10011101 
11000111 11010111 01111000 10010001 
00011110 00010100 00111000 11100000 


11001110 01001100 11001011 00010111 
10010111 00010110 10111001 11111111 
11010011 11000010 11101001 00110010 
00110011 01010101 00110010 00001100 

11101100 00111000 01110110 11100010 
11100010 10010000 11100000 00101100 
01011110 11101010 10010100 00001111 
10010111 00110111 11101000 10111100 

11110001 10101000 10000111 01110101 
10010000 10101110 11110010 00001110 
10010010 01010011 11100001 01101111 
10011000 00110101 10001101 00111100 

10010100 11000111 00000100 00010110 
01100100 10001001 01111000 00001000 
01101010 00011100 11101010 01101001 
10000100 01000000 00100110 11100100 

01010000 00101000 11010010 00010000 
01100110 11011011 11100010 00100101 
11100010 11011111 11111100 11001000 
11111000 10000111 10010011 01111000 

00101011 10110110 10011010 10010111 
11111000 11000010 11100010 11011110 
11010110 11011000 01100010 00111101 
10101110 01111100 01001010 10100011 

00110010 01000000 00000111 11000100 
10011111 00100100 10001010 10000000 
00001001 00001111 01001010 01100001 
10110110 01010011 01110110 00100111 

10100011 11100011 11111100 00011111 
01110001 11111101 10100010 10011101 
11000111 11010111 01111000 10010001 
00011110 00010100 00111000 11100000 


11001110 01001100 11001011 00010111 
10010111 00010110 10111001 11111111 
11010011 11000010 11101001 00110010 
00110011 01010101 00110010 00001100 

11101100 00111000 01110110 11100010 
11100010 10010000 11100000 00101100 
01011110 11101010 10010100 00001111 
10010111 00110111 11101000 10111100 

11110001 10101000 10000111 01110101 
10010000 10101110 11110010 00001110 
10010010 01010011 11100001 01101111 
10011000 00110101 10001101 00111100 

10010100 11000111 00000100 00010110 
01100100 10001001 01111000 00001000 
01101010 00011100 11101010 01101001 
10000100 01000000 00100110 11100100 

01010000 00101000 11010010 00010000 
01100110 11011011 11100010 00100101 
11100010 11011111 11111100 11001000 
11111000 10000111 10010011 01111000 

00101011 10110110 10011010 10010111 
11111000 11000010 11100010 11011110 
11010110 11011000 01100010 00111101 
10101110 01111100 01001010 10100011 

00110010 01000000 00000111 11000100 
10011111 00100100 10001010 10000000 
00001001 00001111 01001010 01100001 
10110110 01010011 01110110 00100111 

10100011 11100011 11111100 00011111 
01110001 11111101 10100010 10011101 
11000111 11010111 01111000 10010001 
00011110 00010100 00111000 11100000 


11001110 01001100 11001011 00010111 
10010111 00010110 10111001 11111111 
11010011 11000010 11101001 00110010 
00110011 01010101 00110010 00001100 

11101100 00111000 01110110 11100010 
11100010 10010000 11100000 00101100 
01011110 11101010 10010100 00001111 
10010111 00110111 11101000 10111100 

11110001 10101000 10000111 01110101 
10010000 10101110 11110010 00001110 
10010010 01010011 11100001 01101111 
10011000 00110101 10001101 00111100 

10010100 11000111 00000100 00010110 
01100100 10001001 01111000 00001000 
01101010 00011100 11101010 01101001 
10000100 01000000 00100110 11100100 

01010000 00101000 11010010 00010000 
01100110 11011011 11100010 00100101 
11100010 11011111 11111100 11001000 
11111000 10000111 10010011 01111000 

00101011 10110110 10011010 10010111 
11111000 11000010 11100010 11011110 
11010110 11011000 01100010 00111101 
10101110 01111100 01001010 10100011 

00110010 01000000 00000111 11000100 
10011111 00100100 10001010 10000000 
00001001 00001111 01001010 01100001 
10110110 01010011 01110110 00100111 

10100011 11100011 11111100 00011111 
01110001 11111101 10100010 10011101 
11000111 11010111 01111000 10010001 
00011110 00010100 00111000 11100000 



11001110 01001100 11001011 00010111 
10010111 00010110 10111001 11111111 
11010011 11000010 11101001 00110010 
00110011 01010101 00110010 00001100 

11101100 00111000 01110110 11100010 
11100010 10010000 11100000 00101100 
01011110 11101010 10010100 00001111 
10010111 00110111 11101000 10111100 

11110001 10101000 10000111 01110101 
10010000 10101110 11110010 00001110 
10010010 01010011 11100001 01101111 
10011000 00110101 10001101 00111100 

10010100 11000111 00000100 00010110 
01100100 10001001 01111000 00001000 
01101010 00011100 11101010 01101001 
10000100 01000000 00100110 11100100 

01010000 00101000 11010010 00010000 
01100110 11011011 11100010 00100101 
11100010 11011111 11111100 11001000 
11111000 10000111 10010011 01111000 

00101011 10110110 10011010 10010111 
11111000 11000010 11100010 11011110 
11010110 11011000 01100010 00111101 
10101110 01111100 01001010 10100011 

00110010 01000000 00000111 11000100 
10011111 00100100 10001010 10000000 
00001001 00001111 01001010 01100001 
10110110 01010011 01110110 00100111 

10100011 11100011 11111100 00011111 
01110001 11111101 10100010 10011101 
11000111 11010111 01111000 10010001 
00011110 00010100 00111000 11100000 


11001110 01001100 11001011 00010111 
10010111 00010110 10111001 11111111 
11010011 11000010 11101001 00110010 
00110011 01010101 00110010 00001100 

11101100 00111000 01110110 11100010 
11100010 10010000 11100000 00101100 
01011110 11101010 10010100 00001111 
10010111 00110111 11101000 10111100 

11110001 10101000 10000111 01110101 
10010000 10101110 11110010 00001110 
10010010 01010011 11100001 01101111 
10011000 00110101 10001101 00111100 

10010100 11000111 00000100 00010110 
01100100 10001001 01111000 00001000 
01101010 00011100 11101010 01101001 
10000100 01000000 00100110 11100100 

01010000 00101000 11010010 00010000 
01100110 11011011 11100010 00100101 
11100010 11011111 11111100 11001000 
11111000 10000111 10010011 01111000 

00101011 10110110 10011010 10010111 
11111000 11000010 11100010 11011110 
11010110 11011000 01100010 00111101 
10101110 01111100 01001010 10100011 

00110010 01000000 00000111 11000100 
10011111 00100100 10001010 10000000 
00001001 00001111 01001010 01100001 
10110110 01010011 01110110 00100111 

10100011 11100011 11111100 00011111 
01110001 11111101 10100010 10011101 
11000111 11010111 01111000 10010001 
00011110 00010100 00111000 11100000 


11001110 01001100 11001011 00010111 
10010111 00010110 10111001 11111111 
11010011 11000010 11101001 00110010 
00110011 01010101 00110010 00001100 

11101100 00111000 01110110 11100010 
11100010 10010000 11100000 00101100 
01011110 11101010 10010100 00001111 
10010111 00110111 11101000 10111100 

11110001 10101000 10000111 01110101 
10010000 10101110 11110010 00001110 
10010010 01010011 11100001 01101111 
10011000 00110101 10001101 00111100 

10010100 11000111 00000100 00010110 
01100100 10001001 01111000 00001000 
01101010 00011100 11101010 01101001 
10000100 01000000 00100110 11100100 

01010000 00101000 11010010 00010000 
01100110 11011011 11100010 00100101 
11100010 11011111 11111100 11001000 
11111000 10000111 10010011 01111000 

00101011 10110110 10011010 10010111 
11111000 11000010 11100010 11011110 
11010110 11011000 01100010 00111101 
10101110 01111100 01001010 10100011 

00110010 01000000 00000111 11000100 
10011111 00100100 10001010 10000000 
00001001 00001111 01001010 01100001 
10110110 01010011 01110110 00100111 

10100011 11100011 11111100 00011111 
01110001 11111101 10100010 10011101 
11000111 11010111 01111000 10010001 
00011110 00010100 00111000 11100000 


11001110 01001100 11001011 00010111 
10010111 00010110 10111001 11111111 
11010011 11000010 11101001 00110010 
00110011 01010101 00110010 00001100 

11101100 00111000 01110110 11100010 
11100010 10010000 11100000 00101100 
01011110 11101010 10010100 00001111 
10010111 00110111 11101000 10111100 

11110001 10101000 10000111 01110101 
10010000 10101110 11110010 00001110 
10010010 01010011 11100001 01101111 
10011000 00110101 10001101 00111100 

10010100 11000111 00000100 00010110 
01100100 10001001 01111000 00001000 
01101010 00011100 11101010 01101001 
10000100 01000000 00100110 11100100 

01010000 00101000 11010010 00010000 
01100110 11011011 11100010 00100101 
11100010 11011111 11111100 11001000 
11111000 10000111 10010011 01111000 

00101011 10110110 10011010 10010111 
11111000 11000010 11100010 11011110 
11010110 11011000 01100010 00111101 
10101110 01111100 01001010 10100011 

00110010 01000000 00000111 11000100 
10011111 00100100 10001010 10000000 
00001001 00001111 01001010 01100001 
10110110 01010011 01110110 00100111 

10100011 11100011 11111100 00011111 
01110001 11111101 10100010 10011101 
11000111 11010111 01111000 10010001 
00011110 00010100 00111000 11100000 



11001110 01001100 11001011 00010111 
10010111 00010110 10111001 11111111 
11010011 11000010 11101001 00110010 
00110011 01010101 00110010 00001100 

11101100 00111000 01110110 11100010 
11100010 10010000 11100000 00101100 
01011110 11101010 10010100 00001111 
10010111 00110111 11101000 10111100 

11110001 10101000 10000111 01110101 
10010000 10101110 11110010 00001110 
10010010 01010011 11100001 01101111 
10011000 00110101 10001101 00111100 

10010100 11000111 00000100 00010110 
01100100 10001001 01111000 00001000 
01101010 00011100 11101010 01101001 
10000100 01000000 00100110 11100100 

01010000 00101000 11010010 00010000 
01100110 11011011 11100010 00100101 
11100010 11011111 11111100 11001000 
11111000 10000111 10010011 01111000 

00101011 10110110 10011010 10010111 
11111000 11000010 11100010 11011110 
11010110 11011000 01100010 00111101 
10101110 01111100 01001010 10100011 

00110010 01000000 00000111 11000100 
10011111 00100100 10001010 10000000 
00001001 00001111 01001010 01100001 
10110110 01010011 01110110 00100111 

10100011 11100011 11111100 00011111 
01110001 11111101 10100010 10011101 
11000111 11010111 01111000 10010001 
00011110 00010100 00111000 11100000 


11001110 01001100 11001011 00010111 
10010111 00010110 10111001 11111111 
11010011 11000010 11101001 00110010 
00110011 01010101 00110010 00001100 

11101100 00111000 01110110 11100010 
11100010 10010000 11100000 00101100 
01011110 11101010 10010100 00001111 
10010111 00110111 11101000 10111100 

11110001 10101000 10000111 01110101 
10010000 10101110 11110010 00001110 
10010010 01010011 11100001 01101111 
10011000 00110101 10001101 00111100 

10010100 11000111 00000100 00010110 
01100100 10001001 01111000 00001000 
01101010 00011100 11101010 01101001 
10000100 01000000 00100110 11100100 

01010000 00101000 11010010 00010000 
01100110 11011011 11100010 00100101 
11100010 11011111 11111100 11001000 
11111000 10000111 10010011 01111000 

00101011 10110110 10011010 10010111 
11111000 11000010 11100010 11011110 
11010110 11011000 01100010 00111101 
10101110 01111100 01001010 10100011 

00110010 01000000 00000111 11000100 
10011111 00100100 10001010 10000000 
00001001 00001111 01001010 01100001 
10110110 01010011 01110110 00100111 

10100011 11100011 11111100 00011111 
01110001 11111101 10100010 10011101 
11000111 11010111 01111000 10010001 
00011110 00010100 00111000 11100000 


11001110 01001100 11001011 00010111 
10010111 00010110 10111001 11111111 
11010011 11000010 11101001 00110010 
00110011 01010101 00110010 00001100 

11101100 00111000 01110110 11100010 
11100010 10010000 11100000 00101100 
01011110 11101010 10010100 00001111 
10010111 00110111 11101000 10111100 

11110001 10101000 10000111 01110101 
10010000 10101110 11110010 00001110 
10010010 01010011 11100001 01101111 
10011000 00110101 10001101 00111100 

10010100 11000111 00000100 00010110 
01100100 10001001 01111000 00001000 
01101010 00011100 11101010 01101001 
10000100 01000000 00100110 11100100 

01010000 00101000 11010010 00010000 
01100110 11011011 11100010 00100101 
11100010 11011111 11111100 11001000 
11111000 10000111 10010011 01111000 

00101011 10110110 10011010 10010111 
11111000 11000010 11100010 11011110 
11010110 11011000 01100010 00111101 
10101110 01111100 01001010 10100011 

00110010 01000000 00000111 11000100 
10011111 00100100 10001010 10000000 
00001001 00001111 01001010 01100001 
10110110 01010011 01110110 00100111 

10100011 11100011 11111100 00011111 
01110001 11111101 10100010 10011101 
11000111 11010111 01111000 10010001 
00011110 00010100 00111000 11100000 


11001110 01001100 11001011 00010111 
10010111 00010110 10111001 11111111 
11010011 11000010 11101001 00110010 
00110011 01010101 00110010 00001100 

11101100 00111000 01110110 11100010 
11100010 10010000 11100000 00101100 
01011110 11101010 10010100 00001111 
10010111 00110111 11101000 10111100 

11110001 10101000 10000111 01110101 
10010000 10101110 11110010 00001110 
10010010 01010011 11100001 01101111 
10011000 00110101 10001101 00111100 

10010100 11000111 00000100 00010110 
01100100 10001001 01111000 00001000 
01101010 00011100 11101010 01101001 
10000100 01000000 00100110 11100100 

01010000 00101000 11010010 00010000 
01100110 11011011 11100010 00100101 
11100010 11011111 11111100 11001000 
11111000 10000111 10010011 01111000 

00101011 10110110 10011010 10010111 
11111000 11000010 11100010 11011110 
11010110 11011000 01100010 00111101 
10101110 01111100 01001010 10100011 

00110010 01000000 00000111 11000100 
10011111 00100100 10001010 10000000 
00001001 00001111 01001010 01100001 
10110110 01010011 01110110 00100111 

10100011 11100011 11111100 00011111 
01110001 11111101 10100010 10011101 
11000111 11010111 01111000 10010001 
00011110 00010100 00111000 11100000 



11001110 01001100 11001011 00010111 
10010111 00010110 10111001 11111111 
11010011 11000010 11101001 00110010 
00110011 01010101 00110010 00001100 

11101100 00111000 01110110 11100010 
11100010 10010000 11100000 00101100 
01011110 11101010 10010100 00001111 
10010111 00110111 11101000 10111100 

11110001 10101000 10000111 01110101 
10010000 10101110 11110010 00001110 
10010010 01010011 11100001 01101111 
10011000 00110101 10001101 00111100 

10010100 11000111 00000100 00010110 
01100100 10001001 01111000 00001000 
01101010 00011100 11101010 01101001 
10000100 01000000 00100110 11100100 

01010000 00101000 11010010 00010000 
01100110 11011011 11100010 00100101 
11100010 11011111 11111100 11001000 
11111000 10000111 10010011 01111000 

00101011 10110110 10011010 10010111 
11111000 11000010 11100010 11011110 
11010110 11011000 01100010 00111101 
10101110 01111100 01001010 10100011 

00110010 01000000 00000111 11000100 
10011111 00100100 10001010 10000000 
00001001 00001111 01001010 01100001 
10110110 01010011 01110110 00100111 

10100011 11100011 11111100 00011111 
01110001 11111101 10100010 10011101 
11000111 11010111 01111000 10010001 
00011110 00010100 00111000 11100000 


11001110 01001100 11001011 00010111 
10010111 00010110 10111001 11111111 
11010011 11000010 11101001 00110010 
00110011 01010101 00110010 00001100 

11101100 00111000 01110110 11100010 
11100010 10010000 11100000 00101100 
01011110 11101010 10010100 00001111 
10010111 00110111 11101000 10111100 

11110001 10101000 10000111 01110101 
10010000 10101110 11110010 00001110 
10010010 01010011 11100001 01101111 
10011000 00110101 10001101 00111100 

10010100 11000111 00000100 00010110 
01100100 10001001 01111000 00001000 
01101010 00011100 11101010 01101001 
10000100 01000000 00100110 11100100 

01010000 00101000 11010010 00010000 
01100110 11011011 11100010 00100101 
11100010 11011111 11111100 11001000 
11111000 10000111 10010011 01111000 

00101011 10110110 10011010 10010111 
11111000 11000010 11100010 11011110 
11010110 11011000 01100010 00111101 
10101110 01111100 01001010 10100011 

00110010 01000000 00000111 11000100 
10011111 00100100 10001010 10000000 
00001001 00001111 01001010 01100001 
10110110 01010011 01110110 00100111 

10100011 11100011 11111100 00011111 
01110001 11111101 10100010 10011101 
11000111 11010111 01111000 10010001 
00011110 00010100 00111000 11100000 


11001110 01001100 11001011 00010111 
10010111 00010110 10111001 11111111 
11010011 11000010 11101001 00110010 
00110011 01010101 00110010 00001100 

11101100 00111000 01110110 11100010 
11100010 10010000 11100000 00101100 
01011110 11101010 10010100 00001111 
10010111 00110111 11101000 10111100 

11110001 10101000 10000111 01110101 
10010000 10101110 11110010 00001110 
10010010 01010011 11100001 01101111 
10011000 00110101 10001101 00111100 

10010100 11000111 00000100 00010110 
01100100 10001001 01111000 00001000 
01101010 00011100 11101010 01101001 
10000100 01000000 00100110 11100100 

01010000 00101000 11010010 00010000 
01100110 11011011 11100010 00100101 
11100010 11011111 11111100 11001000 
11111000 10000111 10010011 01111000 

00101011 10110110 10011010 10010111 
11111000 11000010 11100010 11011110 
11010110 11011000 01100010 00111101 
10101110 01111100 01001010 10100011 

00110010 01000000 00000111 11000100 
10011111 00100100 10001010 10000000 
00001001 00001111 01001010 01100001 
10110110 01010011 01110110 00100111 

10100011 11100011 11111100 00011111 
01110001 11111101 10100010 10011101 
11000111 11010111 01111000 10010001 
00011110 00010100 00111000 11100000 


11001110 01001100 11001011 00010111 
10010111 00010110 10111001 11111111 
11010011 11000010 11101001 00110010 
00110011 01010101 00110010 00001100 

11101100 00111000 01110110 11100010 
11100010 10010000 11100000 00101100 
01011110 11101010 10010100 00001111 
10010111 00110111 11101000 10111100 

11110001 10101000 10000111 01110101 
10010000 10101110 11110010 00001110 
10010010 01010011 11100001 01101111 
10011000 00110101 10001101 00111100 

10010100 11000111 00000100 00010110 
01100100 10001001 01111000 00001000 
01101010 00011100 11101010 01101001 
10000100 01000000 00100110 11100100 

01010000 00101000 11010010 00010000 
01100110 11011011 11100010 00100101 
11100010 11011111 11111100 11001000 
11111000 10000111 10010011 01111000 

00101011 10110110 10011010 10010111 
11111000 11000010 11100010 11011110 
11010110 11011000 01100010 00111101 
10101110 01111100 01001010 10100011 

00110010 01000000 00000111 11000100 
10011111 00100100 10001010 10000000 
00001001 00001111 01001010 01100001 
10110110 01010011 01110110 00100111 

10100011 11100011 11111100 00011111 
01110001 11111101 10100010 10011101 
11000111 11010111 01111000 10010001 
00011110 00010100 00111000 11100000 



11001110 01001100 11001011 00010111 
10010111 00010110 10111001 11111111 
11010011 11000010 11101001 00110010 
00110011 01010101 00110010 00001100 

11101100 00111000 01110110 11100010 
11100010 10010000 11100000 00101100 
01011110 11101010 10010100 00001111 
10010111 00110111 11101000 10111100 

11110001 10101000 10000111 01110101 
10010000 10101110 11110010 00001110 
10010010 01010011 11100001 01101111 
10011000 00110101 10001101 00111100 

10010100 11000111 00000100 00010110 
01100100 10001001 01111000 00001000 
01101010 00011100 11101010 01101001 
10000100 01000000 00100110 11100100 

01010000 00101000 11010010 00010000 
01100110 11011011 11100010 00100101 
11100010 11011111 11111100 11001000 
11111000 10000111 10010011 01111000 

00101011 10110110 10011010 10010111 
11111000 11000010 11100010 11011110 
11010110 11011000 01100010 00111101 
10101110 01111100 01001010 10100011 

00110010 01000000 00000111 11000100 
10011111 00100100 10001010 10000000 
00001001 00001111 01001010 01100001 
10110110 01010011 01110110 00100111 

10100011 11100011 11111100 00011111 
01110001 11111101 10100010 10011101 
11000111 11010111 01111000 10010001 
00011110 00010100 00111000 11100000 


11001110 01001100 11001011 00010111 
10010111 00010110 10111001 11111111 
11010011 11000010 11101001 00110010 
00110011 01010101 00110010 00001100 

11101100 00111000 01110110 11100010 
11100010 10010000 11100000 00101100 
01011110 11101010 10010100 00001111 
10010111 00110111 11101000 10111100 

11110001 10101000 10000111 01110101 
10010000 10101110 11110010 00001110 
10010010 01010011 11100001 01101111 
10011000 00110101 10001101 00111100 

10010100 11000111 00000100 00010110 
01100100 10001001 01111000 00001000 
01101010 00011100 11101010 01101001 
10000100 01000000 00100110 11100100 

01010000 00101000 11010010 00010000 
01100110 11011011 11100010 00100101 
11100010 11011111 11111100 11001000 
11111000 10000111 10010011 01111000 

00101011 10110110 10011010 10010111 
11111000 11000010 11100010 11011110 
11010110 11011000 01100010 00111101 
10101110 01111100 01001010 10100011 

00110010 01000000 00000111 11000100 
10011111 00100100 10001010 10000000 
00001001 00001111 01001010 01100001 
10110110 01010011 01110110 00100111 

10100011 11100011 11111100 00011111 
01110001 11111101 10100010 10011101 
11000111 11010111 01111000 10010001 
00011110 00010100 00111000 11100000 


11001110 01001100 11001011 00010111 
10010111 00010110 10111001 11111111 
11010011 11000010 11101001 00110010 
00110011 01010101 00110010 00001100 

11101100 00111000 01110110 11100010 
11100010 10010000 11100000 00101100 
01011110 11101010 10010100 00001111 
10010111 00110111 11101000 10111100 

11110001 10101000 10000111 01110101 
10010000 10101110 11110010 00001110 
10010010 01010011 11100001 01101111 
10011000 00110101 10001101 00111100 

10010100 11000111 00000100 00010110 
01100100 10001001 01111000 00001000 
01101010 00011100 11101010 01101001 
10000100 01000000 00100110 11100100 

01010000 00101000 11010010 00010000 
01100110 11011011 11100010 00100101 
11100010 11011111 11111100 11001000 
11111000 10000111 10010011 01111000 

00101011 10110110 10011010 10010111 
11111000 11000010 11100010 11011110 
11010110 11011000 01100010 00111101 
10101110 01111100 01001010 10100011 

00110010 01000000 00000111 11000100 
10011111 00100100 10001010 10000000 
00001001 00001111 01001010 01100001 
10110110 01010011 01110110 00100111 

10100011 11100011 11111100 00011111 
01110001 11111101 10100010 10011101 
11000111 11010111 01111000 10010001 
00011110 00010100 00111000 11100000 


11001110 01001100 11001011 00010111 
10010111 00010110 10111001 11111111 
11010011 11000010 11101001 00110010 
00110011 01010101 00110010 00001100 

11101100 00111000 01110110 11100010 
11100010 10010000 11100000 00101100 
01011110 11101010 10010100 00001111 
10010111 00110111 11101000 10111100 

11110001 10101000 10000111 01110101 
10010000 10101110 11110010 00001110 
10010010 01010011 11100001 01101111 
10011000 00110101 10001101 00111100 

10010100 11000111 00000100 00010110 
01100100 10001001 01111000 00001000 
01101010 00011100 11101010 01101001 
10000100 01000000 00100110 11100100 

01010000 00101000 11010010 00010000 
01100110 11011011 11100010 00100101 
11100010 11011111 11111100 11001000 
11111000 10000111 10010011 01111000 

00101011 10110110 10011010 10010111 
11111000 11000010 11100010 11011110 
11010110 11011000 01100010 00111101 
10101110 01111100 01001010 10100011 

00110010 01000000 00000111 11000100 
10011111 00100100 10001010 10000000 
00001001 00001111 01001010 01100001 
10110110 01010011 01110110 00100111 

10100011 11100011 11111100 00011111 
01110001 11111101 10100010 10011101 
11000111 11010111 01111000 10010001 
00011110 00010100 00111000 11100000 



11001110 01001100 11001011 00010111 
10010111 00010110 10111001 11111111 
11010011 11000010 11101001 00110010 
00110011 01010101 00110010 00001100 

11101100 00111000 01110110 11100010 
11100010 10010000 11100000 00101100 
01011110 11101010 10010100 00001111 
10010111 00110111 11101000 10111100 

11110001 10101000 10000111 01110101 
10010000 10101110 11110010 00001110 
10010010 01010011 11100001 01101111 
10011000 00110101 10001101 00111100 

10010100 11000111 00000100 00010110 
01100100 10001001 01111000 00001000 
01101010 00011100 11101010 01101001 
10000100 01000000 00100110 11100100 

01010000 00101000 11010010 00010000 
01100110 11011011 11100010 00100101 
11100010 11011111 11111100 11001000 
11111000 10000111 10010011 01111000 

00101011 10110110 10011010 10010111 
11111000 11000010 11100010 11011110 
11010110 11011000 01100010 00111101 
10101110 01111100 01001010 10100011 

00110010 01000000 00000111 11000100 
10011111 00100100 10001010 10000000 
00001001 00001111 01001010 01100001 
10110110 01010011 01110110 00100111 

10100011 11100011 11111100 00011111 
01110001 11111101 10100010 10011101 
11000111 11010111 01111000 10010001 
00011110 00010100 00111000 11100000 


11001110 01001100 11001011 00010111 
10010111 00010110 10111001 11111111 
11010011 11000010 11101001 00110010 
00110011 01010101 00110010 00001100 

11101100 00111000 01110110 11100010 
11100010 10010000 11100000 00101100 
01011110 11101010 10010100 00001111 
10010111 00110111 11101000 10111100 

11110001 10101000 10000111 01110101 
10010000 10101110 11110010 00001110 
10010010 01010011 11100001 01101111 
10011000 00110101 10001101 00111100 

10010100 11000111 00000100 00010110 
01100100 10001001 01111000 00001000 
01101010 00011100 11101010 01101001 
10000100 01000000 00100110 11100100 

01010000 00101000 11010010 00010000 
01100110 11011011 11100010 00100101 
11100010 11011111 11111100 11001000 
11111000 10000111 10010011 01111000 

00101011 10110110 10011010 10010111 
11111000 11000010 11100010 11011110 
11010110 11011000 01100010 00111101 
10101110 01111100 01001010 10100011 

00110010 01000000 00000111 11000100 
10011111 00100100 10001010 10000000 
00001001 00001111 01001010 01100001 
10110110 01010011 01110110 00100111 

10100011 11100011 11111100 00011111 
01110001 11111101 10100010 10011101 
11000111 11010111 01111000 10010001 
00011110 00010100 00111000 11100000 


11001110 01001100 11001011 00010111 
10010111 00010110 10111001 11111111 
11010011 11000010 11101001 00110010 
00110011 01010101 00110010 00001100 

11101100 00111000 01110110 11100010 
11100010 10010000 11100000 00101100 
01011110 11101010 10010100 00001111 
10010111 00110111 11101000 10111100 

11110001 10101000 10000111 01110101 
10010000 10101110 11110010 00001110 
10010010 01010011 11100001 01101111 
10011000 00110101 10001101 00111100 

10010100 11000111 00000100 00010110 
01100100 10001001 01111000 00001000 
01101010 00011100 11101010 01101001 
10000100 01000000 00100110 11100100 

01010000 00101000 11010010 00010000 
01100110 11011011 11100010 00100101 
11100010 11011111 11111100 11001000 
11111000 10000111 10010011 01111000 

00101011 10110110 10011010 10010111 
11111000 11000010 11100010 11011110 
11010110 11011000 01100010 00111101 
10101110 01111100 01001010 10100011 

00110010 01000000 00000111 11000100 
10011111 00100100 10001010 10000000 
00001001 00001111 01001010 01100001 
10110110 01010011 01110110 00100111 

10100011 11100011 11111100 00011111 
01110001 11111101 10100010 10011101 
11000111 11010111 01111000 10010001 
00011110 00010100 00111000 11100000 


11001110 01001100 11001011 00010111 
10010111 00010110 10111001 11111111 
11010011 11000010 11101001 00110010 
00110011 01010101 00110010 00001100 

11101100 00111000 01110110 11100010 
11100010 10010000 11100000 00101100 
01011110 11101010 10010100 00001111 
10010111 00110111 11101000 10111100 

11110001 10101000 10000111 01110101 
10010000 10101110 11110010 00001110 
10010010 01010011 11100001 01101111 
10011000 00110101 10001101 00111100 

10010100 11000111 00000100 00010110 
01100100 10001001 01111000 00001000 
01101010 00011100 11101010 01101001 
10000100 01000000 00100110 11100100 

01010000 00101000 11010010 00010000 
01100110 11011011 11100010 00100101 
11100010 11011111 11111100 11001000 
11111000 10000111 10010011 01111000 

00101011 10110110 10011010 10010111 
11111000 11000010 11100010 11011110 
11010110 11011000 01100010 00111101 
10101110 01111100 01001010 10100011 

00110010 01000000 00000111 11000100 
10011111 00100100 10001010 10000000 
00001001 00001111 01001010 01100001 
10110110 01010011 01110110 00100111 

10100011 11100011 11111100 00011111 
01110001 11111101 10100010 10011101 
11000111 11010111 01111000 10010001 
00011110 00010100 00111000 11100000 



11001110 01001100 11001011 00010111 
10010111 00010110 10111001 11111111 
11010011 11000010 11101001 00110010 
00110011 01010101 00110010 00001100 

11101100 00111000 01110110 11100010 
11100010 10010000 11100000 00101100 
01011110 11101010 10010100 00001111 
10010111 00110111 11101000 10111100 

11110001 10101000 10000111 01110101 
10010000 10101110 11110010 00001110 
10010010 01010011 11100001 01101111 
10011000 00110101 10001101 00111100 

10010100 11000111 00000100 00010110 
01100100 10001001 01111000 00001000 
01101010 00011100 11101010 01101001 
10000100 01000000 00100110 11100100 

01010000 00101000 11010010 00010000 
01100110 11011011 11100010 00100101 
11100010 11011111 11111100 11001000 
11111000 10000111 10010011 01111000 

00101011 10110110 10011010 10010111 
11111000 11000010 11100010 11011110 
11010110 11011000 01100010 00111101 
10101110 01111100 01001010 10100011 

00110010 01000000 00000111 11000100 
10011111 00100100 10001010 10000000 
00001001 00001111 01001010 01100001 
10110110 01010011 01110110 00100111 

10100011 11100011 11111100 00011111 
01110001 11111101 10100010 10011101 
11000111 11010111 01111000 10010001 
00011110 00010100 00111000 11100000 


11001110 01001100 11001011 00010111 
10010111 00010110 10111001 11111111 
11010011 11000010 11101001 00110010 
00110011 01010101 00110010 00001100 

11101100 00111000 01110110 11100010 
11100010 10010000 11100000 00101100 
01011110 11101010 10010100 00001111 
10010111 00110111 11101000 10111100 

11110001 10101000 10000111 01110101 
10010000 10101110 11110010 00001110 
10010010 01010011 11100001 01101111 
10011000 00110101 10001101 00111100 

10010100 11000111 00000100 00010110 
01100100 10001001 01111000 00001000 
01101010 00011100 11101010 01101001 
10000100 01000000 00100110 11100100 

01010000 00101000 11010010 00010000 
01100110 11011011 11100010 00100101 
11100010 11011111 11111100 11001000 
11111000 10000111 10010011 01111000 

00101011 10110110 10011010 10010111 
11111000 11000010 11100010 11011110 
11010110 11011000 01100010 00111101 
10101110 01111100 01001010 10100011 

00110010 01000000 00000111 11000100 
10011111 00100100 10001010 10000000 
00001001 00001111 01001010 01100001 
10110110 01010011 01110110 00100111 

10100011 11100011 11111100 00011111 
01110001 11111101 10100010 10011101 
11000111 11010111 01111000 10010001 
00011110 00010100 00111000 11100000 


11001110 01001100 11001011 00010111 
10010111 00010110 10111001 11111111 
11010011 11000010 11101001 00110010 
00110011 01010101 00110010 00001100 

11101100 00111000 01110110 11100010 
11100010 10010000 11100000 00101100 
01011110 11101010 10010100 00001111 
10010111 00110111 11101000 10111100 

11110001 10101000 10000111 01110101 
10010000 10101110 11110010 00001110 
10010010 01010011 11100001 01101111 
10011000 00110101 10001101 00111100 

10010100 11000111 00000100 00010110 
01100100 10001001 01111000 00001000 
01101010 00011100 11101010 01101001 
10000100 01000000 00100110 11100100 

01010000 00101000 11010010 00010000 
01100110 11011011 11100010 00100101 
11100010 11011111 11111100 11001000 
11111000 10000111 10010011 01111000 

00101011 10110110 10011010 10010111 
11111000 11000010 11100010 11011110 
11010110 11011000 01100010 00111101 
10101110 01111100 01001010 10100011 

00110010 01000000 00000111 11000100 
10011111 00100100 10001010 10000000 
00001001 00001111 01001010 01100001 
10110110 01010011 01110110 00100111 

10100011 11100011 11111100 00011111 
01110001 11111101 10100010 10011101 
11000111 11010111 01111000 10010001 
00011110 00010100 00111000 11100000 


11001110 01001100 11001011 00010111 
10010111 00010110 10111001 11111111 
11010011 11000010 11101001 00110010 
00110011 01010101 00110010 00001100 

11101100 00111000 01110110 11100010 
11100010 10010000 11100000 00101100 
01011110 11101010 10010100 00001111 
10010111 00110111 11101000 10111100 

11110001 10101000 10000111 01110101 
10010000 10101110 11110010 00001110 
10010010 01010011 11100001 01101111 
10011000 00110101 10001101 00111100 

10010100 11000111 00000100 00010110 
01100100 10001001 01111000 00001000 
01101010 00011100 11101010 01101001 
10000100 01000000 00100110 11100100 

01010000 00101000 11010010 00010000 
01100110 11011011 11100010 00100101 
11100010 11011111 11111100 11001000 
11111000 10000111 10010011 01111000 

00101011 10110110 10011010 10010111 
11111000 11000010 11100010 11011110 
11010110 11011000 01100010 00111101 
10101110 01111100 01001010 10100011 

00110010 01000000 00000111 11000100 
10011111 00100100 10001010 10000000 
00001001 00001111 01001010 01100001 
10110110 01010011 01110110 00100111 

10100011 11100011 11111100 00011111 
01110001 11111101 10100010 10011101 
11000111 11010111 01111000 10010001 
00011110 00010100 00111000 11100000 



11001110 01001100 11001011 00010111 
10010111 00010110 10111001 11111111 
11010011 11000010 11101001 00110010 
00110011 01010101 00110010 00001100 

11101100 00111000 01110110 11100010 
11100010 10010000 11100000 00101100 
01011110 11101010 10010100 00001111 
10010111 00110111 11101000 10111100 

11110001 10101000 10000111 01110101 
10010000 10101110 11110010 00001110 
10010010 01010011 11100001 01101111 
10011000 00110101 10001101 00111100 

10010100 11000111 00000100 00010110 
01100100 10001001 01111000 00001000 
01101010 00011100 11101010 01101001 
10000100 01000000 00100110 11100100 

01010000 00101000 11010010 00010000 
01100110 11011011 11100010 00100101 
11100010 11011111 11111100 11001000 
11111000 10000111 10010011 01111000 

00101011 10110110 10011010 10010111 
11111000 11000010 11100010 11011110 
11010110 11011000 01100010 00111101 
10101110 01111100 01001010 10100011 

00110010 01000000 00000111 11000100 
10011111 00100100 10001010 10000000 
00001001 00001111 01001010 01100001 
10110110 01010011 01110110 00100111 

10100011 11100011 11111100 00011111 
01110001 11111101 10100010 10011101 
11000111 11010111 01111000 10010001 
00011110 00010100 00111000 11100000 


11001110 01001100 11001011 00010111 
10010111 00010110 10111001 11111111 
11010011 11000010 11101001 00110010 
00110011 01010101 00110010 00001100 

11101100 00111000 01110110 11100010 
11100010 10010000 11100000 00101100 
01011110 11101010 10010100 00001111 
10010111 00110111 11101000 10111100 

11110001 10101000 10000111 01110101 
10010000 10101110 11110010 00001110 
10010010 01010011 11100001 01101111 
10011000 00110101 10001101 00111100 

10010100 11000111 00000100 00010110 
01100100 10001001 01111000 00001000 
01101010 00011100 11101010 01101001 
10000100 01000000 00100110 11100100 

01010000 00101000 11010010 00010000 
01100110 11011011 11100010 00100101 
11100010 11011111 11111100 11001000 
11111000 10000111 10010011 01111000 

00101011 10110110 10011010 10010111 
11111000 11000010 11100010 11011110 
11010110 11011000 01100010 00111101 
10101110 01111100 01001010 10100011 

00110010 01000000 00000111 11000100 
10011111 00100100 10001010 10000000 
00001001 00001111 01001010 01100001 
10110110 01010011 01110110 00100111 

10100011 11100011 11111100 00011111 
01110001 11111101 10100010 10011101 
11000111 11010111 01111000 10010001 
00011110 00010100 00111000 11100000 


11001110 01001100 11001011 00010111 
10010111 00010110 10111001 11111111 
11010011 11000010 11101001 00110010 
00110011 01010101 00110010 00001100 

11101100 00111000 01110110 11100010 
11100010 10010000 11100000 00101100 
01011110 11101010 10010100 00001111 
10010111 00110111 11101000 10111100 

11110001 10101000 10000111 01110101 
10010000 10101110 11110010 00001110 
10010010 01010011 11100001 01101111 
10011000 00110101 10001101 00111100 

10010100 11000111 00000100 00010110 
01100100 10001001 01111000 00001000 
01101010 00011100 11101010 01101001 
10000100 01000000 00100110 11100100 

01010000 00101000 11010010 00010000 
01100110 11011011 11100010 00100101 
11100010 11011111 11111100 11001000 
11111000 10000111 10010011 01111000 

00101011 10110110 10011010 10010111 
11111000 11000010 11100010 11011110 
11010110 11011000 01100010 00111101 
10101110 01111100 01001010 10100011 

00110010 01000000 00000111 11000100 
10011111 00100100 10001010 10000000 
00001001 00001111 01001010 01100001 
10110110 01010011 01110110 00100111 

10100011 11100011 11111100 00011111 
01110001 11111101 10100010 10011101 
11000111 11010111 01111000 10010001 
00011110 00010100 00111000 11100000 


11001110 01001100 11001011 00010111 
10010111 00010110 10111001 11111111 
11010011 11000010 11101001 00110010 
00110011 01010101 00110010 00001100 

11101100 00111000 01110110 11100010 
11100010 10010000 11100000 00101100 
01011110 11101010 10010100 00001111 
10010111 00110111 11101000 10111100 

11110001 10101000 10000111 01110101 
10010000 10101110 11110010 00001110 
10010010 01010011 11100001 01101111 
10011000 00110101 10001101 00111100 

10010100 11000111 00000100 00010110 
01100100 10001001 01111000 00001000 
01101010 00011100 11101010 01101001 
10000100 01000000 00100110 11100100 

01010000 00101000 11010010 00010000 
01100110 11011011 11100010 00100101 
11100010 11011111 11111100 11001000 
11111000 10000111 10010011 01111000 

00101011 10110110 10011010 10010111 
11111000 11000010 11100010 11011110 
11010110 11011000 01100010 00111101 
10101110 01111100 01001010 10100011 

00110010 01000000 00000111 11000100 
10011111 00100100 10001010 10000000 
00001001 00001111 01001010 01100001 
10110110 01010011 01110110 00100111 

10100011 11100011 11111100 00011111 
01110001 11111101 10100010 10011101 
11000111 11010111 01111000 10010001 
00011110 00010100 00111000 11100000 



11001110 01001100 11001011 00010111 
10010111 00010110 10111001 11111111 
11010011 11000010 11101001 00110010 
00110011 01010101 00110010 00001100 

11101100 00111000 01110110 11100010 
11100010 10010000 11100000 00101100 
01011110 11101010 10010100 00001111 
10010111 00110111 11101000 10111100 

11110001 10101000 10000111 01110101 
10010000 10101110 11110010 00001110 
10010010 01010011 11100001 01101111 
10011000 00110101 10001101 00111100 

10010100 11000111 00000100 00010110 
01100100 10001001 01111000 00001000 
01101010 00011100 11101010 01101001 
10000100 01000000 00100110 11100100 

01010000 00101000 11010010 00010000 
01100110 11011011 11100010 00100101 
11100010 11011111 11111100 11001000 
11111000 10000111 10010011 01111000 

00101011 10110110 10011010 10010111 
11111000 11000010 11100010 11011110 
11010110 11011000 01100010 00111101 
10101110 01111100 01001010 10100011 

00110010 01000000 00000111 11000100 
10011111 00100100 10001010 10000000 
00001001 00001111 01001010 01100001 
10110110 01010011 01110110 00100111 

10100011 11100011 11111100 00011111 
01110001 11111101 10100010 10011101 
11000111 11010111 01111000 10010001 
00011110 00010100 00111000 11100000 


11001110 01001100 11001011 00010111 
10010111 00010110 10111001 11111111 
11010011 11000010 11101001 00110010 
00110011 01010101 00110010 00001100 

11101100 00111000 01110110 11100010 
11100010 10010000 11100000 00101100 
01011110 11101010 10010100 00001111 
10010111 00110111 11101000 10111100 

11110001 10101000 10000111 01110101 
10010000 10101110 11110010 00001110 
10010010 01010011 11100001 01101111 
10011000 00110101 10001101 00111100 

10010100 11000111 00000100 00010110 
01100100 10001001 01111000 00001000 
01101010 00011100 11101010 01101001 
10000100 01000000 00100110 11100100 

01010000 00101000 11010010 00010000 
01100110 11011011 11100010 00100101 
11100010 11011111 11111100 11001000 
11111000 10000111 10010011 01111000 

00101011 10110110 10011010 10010111 
11111000 11000010 11100010 11011110 
11010110 11011000 01100010 00111101 
10101110 01111100 01001010 10100011 

00110010 01000000 00000111 11000100 
10011111 00100100 10001010 10000000 
00001001 00001111 01001010 01100001 
10110110 01010011 01110110 00100111 

10100011 11100011 11111100 00011111 
01110001 11111101 10100010 10011101 
11000111 11010111 01111000 10010001 
00011110 00010100 00111000 11100000 


11001110 01001100 11001011 00010111 
10010111 00010110 10111001 11111111 
11010011 11000010 11101001 00110010 
00110011 01010101 00110010 00001100 

11101100 00111000 01110110 11100010 
11100010 10010000 11100000 00101100 
01011110 11101010 10010100 00001111 
10010111 00110111 11101000 10111100 

11110001 10101000 10000111 01110101 
10010000 10101110 11110010 00001110 
10010010 01010011 11100001 01101111 
10011000 00110101 10001101 00111100 

10010100 11000111 00000100 00010110 
01100100 10001001 01111000 00001000 
01101010 00011100 11101010 01101001 
10000100 01000000 00100110 11100100 

01010000 00101000 11010010 00010000 
01100110 11011011 11100010 00100101 
11100010 11011111 11111100 11001000 
11111000 10000111 10010011 01111000 

00101011 10110110 10011010 10010111 
11111000 11000010 11100010 11011110 
11010110 11011000 01100010 00111101 
10101110 01111100 01001010 10100011 

00110010 01000000 00000111 11000100 
10011111 00100100 10001010 10000000 
00001001 00001111 01001010 01100001 
10110110 01010011 01110110 00100111 

10100011 11100011 11111100 00011111 
01110001 11111101 10100010 10011101 
11000111 11010111 01111000 10010001 
00011110 00010100 00111000 11100000 


11001110 01001100 11001011 00010111 
10010111 00010110 10111001 11111111 
11010011 11000010 11101001 00110010 
00110011 01010101 00110010 00001100 

11101100 00111000 01110110 11100010 
11100010 10010000 11100000 00101100 
01011110 11101010 10010100 00001111 
10010111 00110111 11101000 10111100 

11110001 10101000 10000111 01110101 
10010000 10101110 11110010 00001110 
10010010 01010011 11100001 01101111 
10011000 00110101 10001101 00111100 

10010100 11000111 00000100 00010110 
01100100 10001001 01111000 00001000 
01101010 00011100 11101010 01101001 
10000100 01000000 00100110 11100100 

01010000 00101000 11010010 00010000 
01100110 11011011 11100010 00100101 
11100010 11011111 11111100 11001000 
11111000 10000111 10010011 01111000 

00101011 10110110 10011010 10010111 
11111000 11000010 11100010 11011110 
11010110 11011000 01100010 00111101 
10101110 01111100 01001010 10100011 

00110010 01000000 00000111 11000100 
10011111 00100100 10001010 10000000 
00001001 00001111 01001010 01100001 
10110110 01010011 01110110 00100111 

10100011 11100011 11111100 00011111 
01110001 11111101 10100010 10011101 
11000111 11010111 01111000 10010001 
00011110 00010100 00111000 11100000 




00001100 01000101 11011010 00000000 
01101100 10010010 01110011 11101110 
01100000 00101001 00000110 01101011 
10010011 11100110 01010100 11111101 

11001000 10111101 00011111 10100011 
00110100 00110110 10111011 01010100 
00001010 01100111 11100001 00001111 
00101010 01111111 01011111 11111101 

01101110 00101000 11100111 11110001 
01101110 11111101 11100110 00100101 
01001010 10010111 10000101 00101011 
01111100 11000111 00111001 10101100 

01001001 00111001 00101011 00000010 
00001111 00110010 11101110 01010100 
01101111 10110000 11100111 10001100 
10011101 10110100 00011000 10111111 

00111110 00000010 01001000 01111010 
01110000 00101000 10100100 00010001 
01110101 10100100 11111001 01011101 
11100101 11110001 11101001 11111110 

01100111 00000101 11011001 01101110 
10011100 00011001 00111110 01010001 
00111000 00101101 00101110 01110100 
00100010 01010110 11001001 10111100 

00101101 10010001 11111110 01001101 
11010110 11110011 00101011 00101100 
10010000 00101011 11100110 10110011 
01100000 00111011 00101001 10101100 

01111011 10001001 11011110 11101101 
11011101 11010010 10011000 10001100 
11110001 10110110 01111100 01100000 
11110001 10000111 10110101 11010100 


00001100 01000101 11011010 00000000 
01101100 10010010 01110011 11101110 
01100000 00101001 00000110 01101011 
10010011 11100110 01010100 11111101 

11001000 10111101 00011111 10100011 
00110100 00110110 10111011 01010100 
00001010 01100111 11100001 00001111 
00101010 01111111 01011111 11111101 

01101110 00101000 11100111 11110001 
01101110 11111101 11100110 00100101 
01001010 10010111 10000101 00101011 
01111100 11000111 00111001 10101100 

01001001 00111001 00101011 00000010 
00001111 00110010 11101110 01010100 
01101111 10110000 11100111 10001100 
10011101 10110100 00011000 10111111 

00111110 00000010 01001000 01111010 
01110000 00101000 10100100 00010001 
01110101 10100100 11111001 01011101 
11100101 11110001 11101001 11111110 

01100111 00000101 11011001 01101110 
10011100 00011001 00111110 01010001 
00111000 00101101 00101110 01110100 
00100010 01010110 11001001 10111100 

00101101 10010001 11111110 01001101 
11010110 11110011 00101011 00101100 
10010000 00101011 11100110 10110011 
01100000 00111011 00101001 10101100 

01111011 10001001 11011110 11101101 
11011101 11010010 10011000 10001100 
11110001 10110110 01111100 01100000 
11110001 10000111 10110101 11010100 


00001100 01000101 11011010 00000000 
01101100 10010010 01110011 11101110 
01100000 00101001 00000110 01101011 
10010011 11100110 01010100 11111101 

11001000 10111101 00011111 10100011 
00110100 00110110 10111011 01010100 
00001010 01100111 11100001 00001111 
00101010 01111111 01011111 11111101 

01101110 00101000 11100111 11110001 
01101110 11111101 11100110 00100101 
01001010 10010111 10000101 00101011 
01111100 11000111 00111001 10101100 

01001001 00111001 00101011 00000010 
00001111 00110010 11101110 01010100 
01101111 10110000 11100111 10001100 
10011101 10110100 00011000 10111111 

00111110 00000010 01001000 01111010 
01110000 00101000 10100100 00010001 
01110101 10100100 11111001 01011101 
11100101 11110001 11101001 11111110 

01100111 00000101 11011001 01101110 
10011100 00011001 00111110 01010001 
00111000 00101101 00101110 01110100 
00100010 01010110 11001001 10111100 

00101101 10010001 11111110 01001101 
11010110 11110011 00101011 00101100 
10010000 00101011 11100110 10110011 
01100000 00111011 00101001 10101100 

01111011 10001001 11011110 11101101 
11011101 11010010 10011000 10001100 
11110001 10110110 01111100 01100000 
11110001 10000111 10110101 11010100 


00001100 01000101 11011010 00000000 
01101100 10010010 01110011 11101110 
01100000 00101001 00000110 01101011 
10010011 11100110 01010100 11111101 

11001000 10111101 00011111 10100011 
00110100 00110110 10111011 01010100 
00001010 01100111 11100001 00001111 
00101010 01111111 01011111 11111101 

01101110 00101000 11100111 11110001 
01101110 11111101 11100110 00100101 
01001010 10010111 10000101 00101011 
01111100 11000111 00111001 10101100 

01001001 00111001 00101011 00000010 
00001111 00110010 11101110 01010100 
01101111 10110000 11100111 10001100 
10011101 10110100 00011000 10111111 

00111110 00000010 01001000 01111010 
01110000 00101000 10100100 00010001 
01110101 10100100 11111001 01011101 
11100101 11110001 11101001 11111110 

01100111 00000101 11011001 01101110 
10011100 00011001 00111110 01010001 
00111000 00101101 00101110 01110100 
00100010 01010110 11001001 10111100 

00101101 10010001 11111110 01001101 
11010110 11110011 00101011 00101100 
10010000 00101011 11100110 10110011 
01100000 00111011 00101001 10101100 

01111011 10001001 11011110 11101101 
11011101 11010010 10011000 10001100 
11110001 10110110 01111100 01100000 
11110001 10000111 10110101 11010100 



00001100 01000101 11011010 00000000 
01101100 10010010 01110011 11101110 
01100000 00101001 00000110 01101011 
10010011 11100110 01010100 11111101 

11001000 10111101 00011111 10100011 
00110100 00110110 10111011 01010100 
00001010 01100111 11100001 00001111 
00101010 01111111 01011111 11111101 

01101110 00101000 11100111 11110001 
01101110 11111101 11100110 00100101 
01001010 10010111 10000101 00101011 
01111100 11000111 00111001 10101100 

01001001 00111001 00101011 00000010 
00001111 00110010 11101110 01010100 
01101111 10110000 11100111 10001100 
10011101 10110100 00011000 10111111 

00111110 00000010 01001000 01111010 
01110000 00101000 10100100 00010001 
01110101 10100100 11111001 01011101 
11100101 11110001 11101001 11111110 

01100111 00000101 11011001 01101110 
10011100 00011001 00111110 01010001 
00111000 00101101 00101110 01110100 
00100010 01010110 11001001 10111100 

00101101 10010001 11111110 01001101 
11010110 11110011 00101011 00101100 
10010000 00101011 11100110 10110011 
01100000 00111011 00101001 10101100 

01111011 10001001 11011110 11101101 
11011101 11010010 10011000 10001100 
11110001 10110110 01111100 01100000 
11110001 10000111 10110101 11010100 


00001100 01000101 11011010 00000000 
01101100 10010010 01110011 11101110 
01100000 00101001 00000110 01101011 
10010011 11100110 01010100 11111101 

11001000 10111101 00011111 10100011 
00110100 00110110 10111011 01010100 
00001010 01100111 11100001 00001111 
00101010 01111111 01011111 11111101 

01101110 00101000 11100111 11110001 
01101110 11111101 11100110 00100101 
01001010 10010111 10000101 00101011 
01111100 11000111 00111001 10101100 

01001001 00111001 00101011 00000010 
00001111 00110010 11101110 01010100 
01101111 10110000 11100111 10001100 
10011101 10110100 00011000 10111111 

00111110 00000010 01001000 01111010 
01110000 00101000 10100100 00010001 
01110101 10100100 11111001 01011101 
11100101 11110001 11101001 11111110 

01100111 00000101 11011001 01101110 
10011100 00011001 00111110 01010001 
00111000 00101101 00101110 01110100 
00100010 01010110 11001001 10111100 

00101101 10010001 11111110 01001101 
11010110 11110011 00101011 00101100 
10010000 00101011 11100110 10110011 
01100000 00111011 00101001 10101100 

01111011 10001001 11011110 11101101 
11011101 11010010 10011000 10001100 
11110001 10110110 01111100 01100000 
11110001 10000111 10110101 11010100 


00001100 01000101 11011010 00000000 
01101100 10010010 01110011 11101110 
01100000 00101001 00000110 01101011 
10010011 11100110 01010100 11111101 

11001000 10111101 00011111 10100011 
00110100 00110110 10111011 01010100 
00001010 01100111 11100001 00001111 
00101010 01111111 01011111 11111101 

01101110 00101000 11100111 11110001 
01101110 11111101 11100110 00100101 
01001010 10010111 10000101 00101011 
01111100 11000111 00111001 10101100 

01001001 00111001 00101011 00000010 
00001111 00110010 11101110 01010100 
01101111 10110000 11100111 10001100 
10011101 10110100 00011000 10111111 

00111110 00000010 01001000 01111010 
01110000 00101000 10100100 00010001 
01110101 10100100 11111001 01011101 
11100101 11110001 11101001 11111110 

01100111 00000101 11011001 01101110 
10011100 00011001 00111110 01010001 
00111000 00101101 00101110 01110100 
00100010 01010110 11001001 10111100 

00101101 10010001 11111110 01001101 
11010110 11110011 00101011 00101100 
10010000 00101011 11100110 10110011 
01100000 00111011 00101001 10101100 

01111011 10001001 11011110 11101101 
11011101 11010010 10011000 10001100 
11110001 10110110 01111100 01100000 
11110001 10000111 10110101 11010100 


00001100 01000101 11011010 00000000 
01101100 10010010 01110011 11101110 
01100000 00101001 00000110 01101011 
10010011 11100110 01010100 11111101 

11001000 10111101 00011111 10100011 
00110100 00110110 10111011 01010100 
00001010 01100111 11100001 00001111 
00101010 01111111 01011111 11111101 

01101110 00101000 11100111 11110001 
01101110 11111101 11100110 00100101 
01001010 10010111 10000101 00101011 
01111100 11000111 00111001 10101100 

01001001 00111001 00101011 00000010 
00001111 00110010 11101110 01010100 
01101111 10110000 11100111 10001100 
10011101 10110100 00011000 10111111 

00111110 00000010 01001000 01111010 
01110000 00101000 10100100 00010001 
01110101 10100100 11111001 01011101 
11100101 11110001 11101001 11111110 

01100111 00000101 11011001 01101110 
10011100 00011001 00111110 01010001 
00111000 00101101 00101110 01110100 
00100010 01010110 11001001 10111100 

00101101 10010001 11111110 01001101 
11010110 11110011 00101011 00101100 
10010000 00101011 11100110 10110011 
01100000 00111011 00101001 10101100 

01111011 10001001 11011110 11101101 
11011101 11010010 10011000 10001100 
11110001 10110110 01111100 01100000 
11110001 10000111 10110101 11010100 



00001100 01000101 11011010 00000000 
01101100 10010010 01110011 11101110 
01100000 00101001 00000110 01101011 
10010011 11100110 01010100 11111101 

11001000 10111101 00011111 10100011 
00110100 00110110 10111011 01010100 
00001010 01100111 11100001 00001111 
00101010 01111111 01011111 11111101 

01101110 00101000 11100111 11110001 
01101110 11111101 11100110 00100101 
01001010 10010111 10000101 00101011 
01111100 11000111 00111001 10101100 

01001001 00111001 00101011 00000010 
00001111 00110010 11101110 01010100 
01101111 10110000 11100111 10001100 
10011101 10110100 00011000 10111111 

00111110 00000010 01001000 01111010 
01110000 00101000 10100100 00010001 
01110101 10100100 11111001 01011101 
11100101 11110001 11101001 11111110 

01100111 00000101 11011001 01101110 
10011100 00011001 00111110 01010001 
00111000 00101101 00101110 01110100 
00100010 01010110 11001001 10111100 

00101101 10010001 11111110 01001101 
11010110 11110011 00101011 00101100 
10010000 00101011 11100110 10110011 
01100000 00111011 00101001 10101100 

01111011 10001001 11011110 11101101 
11011101 11010010 10011000 10001100 
11110001 10110110 01111100 01100000 
11110001 10000111 10110101 11010100 


00001100 01000101 11011010 00000000 
01101100 10010010 01110011 11101110 
01100000 00101001 00000110 01101011 
10010011 11100110 01010100 11111101 

11001000 10111101 00011111 10100011 
00110100 00110110 10111011 01010100 
00001010 01100111 11100001 00001111 
00101010 01111111 01011111 11111101 

01101110 00101000 11100111 11110001 
01101110 11111101 11100110 00100101 
01001010 10010111 10000101 00101011 
01111100 11000111 00111001 10101100 

01001001 00111001 00101011 00000010 
00001111 00110010 11101110 01010100 
01101111 10110000 11100111 10001100 
10011101 10110100 00011000 10111111 

00111110 00000010 01001000 01111010 
01110000 00101000 10100100 00010001 
01110101 10100100 11111001 01011101 
11100101 11110001 11101001 11111110 

01100111 00000101 11011001 01101110 
10011100 00011001 00111110 01010001 
00111000 00101101 00101110 01110100 
00100010 01010110 11001001 10111100 

00101101 10010001 11111110 01001101 
11010110 11110011 00101011 00101100 
10010000 00101011 11100110 10110011 
01100000 00111011 00101001 10101100 

01111011 10001001 11011110 11101101 
11011101 11010010 10011000 10001100 
11110001 10110110 01111100 01100000 
11110001 10000111 10110101 11010100 


00001100 01000101 11011010 00000000 
01101100 10010010 01110011 11101110 
01100000 00101001 00000110 01101011 
10010011 11100110 01010100 11111101 

11001000 10111101 00011111 10100011 
00110100 00110110 10111011 01010100 
00001010 01100111 11100001 00001111 
00101010 01111111 01011111 11111101 

01101110 00101000 11100111 11110001 
01101110 11111101 11100110 00100101 
01001010 10010111 10000101 00101011 
01111100 11000111 00111001 10101100 

01001001 00111001 00101011 00000010 
00001111 00110010 11101110 01010100 
01101111 10110000 11100111 10001100 
10011101 10110100 00011000 10111111 

00111110 00000010 01001000 01111010 
01110000 00101000 10100100 00010001 
01110101 10100100 11111001 01011101 
11100101 11110001 11101001 11111110 

01100111 00000101 11011001 01101110 
10011100 00011001 00111110 01010001 
00111000 00101101 00101110 01110100 
00100010 01010110 11001001 10111100 

00101101 10010001 11111110 01001101 
11010110 11110011 00101011 00101100 
10010000 00101011 11100110 10110011 
01100000 00111011 00101001 10101100 

01111011 10001001 11011110 11101101 
11011101 11010010 10011000 10001100 
11110001 10110110 01111100 01100000 
11110001 10000111 10110101 11010100 


00001100 01000101 11011010 00000000 
01101100 10010010 01110011 11101110 
01100000 00101001 00000110 01101011 
10010011 11100110 01010100 11111101 

11001000 10111101 00011111 10100011 
00110100 00110110 10111011 01010100 
00001010 01100111 11100001 00001111 
00101010 01111111 01011111 11111101 

01101110 00101000 11100111 11110001 
01101110 11111101 11100110 00100101 
01001010 10010111 10000101 00101011 
01111100 11000111 00111001 10101100 

01001001 00111001 00101011 00000010 
00001111 00110010 11101110 01010100 
01101111 10110000 11100111 10001100 
10011101 10110100 00011000 10111111 

00111110 00000010 01001000 01111010 
01110000 00101000 10100100 00010001 
01110101 10100100 11111001 01011101 
11100101 11110001 11101001 11111110 

01100111 00000101 11011001 01101110 
10011100 00011001 00111110 01010001 
00111000 00101101 00101110 01110100 
00100010 01010110 11001001 10111100 

00101101 10010001 11111110 01001101 
11010110 11110011 00101011 00101100 
10010000 00101011 11100110 10110011 
01100000 00111011 00101001 10101100 

01111011 10001001 11011110 11101101 
11011101 11010010 10011000 10001100 
11110001 10110110 01111100 01100000 
11110001 10000111 10110101 11010100 



00001100 01000101 11011010 00000000 
01101100 10010010 01110011 11101110 
01100000 00101001 00000110 01101011 
10010011 11100110 01010100 11111101 

11001000 10111101 00011111 10100011 
00110100 00110110 10111011 01010100 
00001010 01100111 11100001 00001111 
00101010 01111111 01011111 11111101 

01101110 00101000 11100111 11110001 
01101110 11111101 11100110 00100101 
01001010 10010111 10000101 00101011 
01111100 11000111 00111001 10101100 

01001001 00111001 00101011 00000010 
00001111 00110010 11101110 01010100 
01101111 10110000 11100111 10001100 
10011101 10110100 00011000 10111111 

00111110 00000010 01001000 01111010 
01110000 00101000 10100100 00010001 
01110101 10100100 11111001 01011101 
11100101 11110001 11101001 11111110 

01100111 00000101 11011001 01101110 
10011100 00011001 00111110 01010001 
00111000 00101101 00101110 01110100 
00100010 01010110 11001001 10111100 

00101101 10010001 11111110 01001101 
11010110 11110011 00101011 00101100 
10010000 00101011 11100110 10110011 
01100000 00111011 00101001 10101100 

01111011 10001001 11011110 11101101 
11011101 11010010 10011000 10001100 
11110001 10110110 01111100 01100000 
11110001 10000111 10110101 11010100 


00001100 01000101 11011010 00000000 
01101100 10010010 01110011 11101110 
01100000 00101001 00000110 01101011 
10010011 11100110 01010100 11111101 

11001000 10111101 00011111 10100011 
00110100 00110110 10111011 01010100 
00001010 01100111 11100001 00001111 
00101010 01111111 01011111 11111101 

01101110 00101000 11100111 11110001 
01101110 11111101 11100110 00100101 
01001010 10010111 10000101 00101011 
01111100 11000111 00111001 10101100 

01001001 00111001 00101011 00000010 
00001111 00110010 11101110 01010100 
01101111 10110000 11100111 10001100 
10011101 10110100 00011000 10111111 

00111110 00000010 01001000 01111010 
01110000 00101000 10100100 00010001 
01110101 10100100 11111001 01011101 
11100101 11110001 11101001 11111110 

01100111 00000101 11011001 01101110 
10011100 00011001 00111110 01010001 
00111000 00101101 00101110 01110100 
00100010 01010110 11001001 10111100 

00101101 10010001 11111110 01001101 
11010110 11110011 00101011 00101100 
10010000 00101011 11100110 10110011 
01100000 00111011 00101001 10101100 

01111011 10001001 11011110 11101101 
11011101 11010010 10011000 10001100 
11110001 10110110 01111100 01100000 
11110001 10000111 10110101 11010100 


00001100 01000101 11011010 00000000 
01101100 10010010 01110011 11101110 
01100000 00101001 00000110 01101011 
10010011 11100110 01010100 11111101 

11001000 10111101 00011111 10100011 
00110100 00110110 10111011 01010100 
00001010 01100111 11100001 00001111 
00101010 01111111 01011111 11111101 

01101110 00101000 11100111 11110001 
01101110 11111101 11100110 00100101 
01001010 10010111 10000101 00101011 
01111100 11000111 00111001 10101100 

01001001 00111001 00101011 00000010 
00001111 00110010 11101110 01010100 
01101111 10110000 11100111 10001100 
10011101 10110100 00011000 10111111 

00111110 00000010 01001000 01111010 
01110000 00101000 10100100 00010001 
01110101 10100100 11111001 01011101 
11100101 11110001 11101001 11111110 

01100111 00000101 11011001 01101110 
10011100 00011001 00111110 01010001 
00111000 00101101 00101110 01110100 
00100010 01010110 11001001 10111100 

00101101 10010001 11111110 01001101 
11010110 11110011 00101011 00101100 
10010000 00101011 11100110 10110011 
01100000 00111011 00101001 10101100 

01111011 10001001 11011110 11101101 
11011101 11010010 10011000 10001100 
11110001 10110110 01111100 01100000 
11110001 10000111 10110101 11010100 


00001100 01000101 11011010 00000000 
01101100 10010010 01110011 11101110 
01100000 00101001 00000110 01101011 
10010011 11100110 01010100 11111101 

11001000 10111101 00011111 10100011 
00110100 00110110 10111011 01010100 
00001010 01100111 11100001 00001111 
00101010 01111111 01011111 11111101 

01101110 00101000 11100111 11110001 
01101110 11111101 11100110 00100101 
01001010 10010111 10000101 00101011 
01111100 11000111 00111001 10101100 

01001001 00111001 00101011 00000010 
00001111 00110010 11101110 01010100 
01101111 10110000 11100111 10001100 
10011101 10110100 00011000 10111111 

00111110 00000010 01001000 01111010 
01110000 00101000 10100100 00010001 
01110101 10100100 11111001 01011101 
11100101 11110001 11101001 11111110 

01100111 00000101 11011001 01101110 
10011100 00011001 00111110 01010001 
00111000 00101101 00101110 01110100 
00100010 01010110 11001001 10111100 

00101101 10010001 11111110 01001101 
11010110 11110011 00101011 00101100 
10010000 00101011 11100110 10110011 
01100000 00111011 00101001 10101100 

01111011 10001001 11011110 11101101 
11011101 11010010 10011000 10001100 
11110001 10110110 01111100 01100000 
11110001 10000111 10110101 11010100 



00001100 01000101 11011010 00000000 
01101100 10010010 01110011 11101110 
01100000 00101001 00000110 01101011 
10010011 11100110 01010100 11111101 

11001000 10111101 00011111 10100011 
00110100 00110110 10111011 01010100 
00001010 01100111 11100001 00001111 
00101010 01111111 01011111 11111101 

01101110 00101000 11100111 11110001 
01101110 11111101 11100110 00100101 
01001010 10010111 10000101 00101011 
01111100 11000111 00111001 10101100 

01001001 00111001 00101011 00000010 
00001111 00110010 11101110 01010100 
01101111 10110000 11100111 10001100 
10011101 10110100 00011000 10111111 

00111110 00000010 01001000 01111010 
01110000 00101000 10100100 00010001 
01110101 10100100 11111001 01011101 
11100101 11110001 11101001 11111110 

01100111 00000101 11011001 01101110 
10011100 00011001 00111110 01010001 
00111000 00101101 00101110 01110100 
00100010 01010110 11001001 10111100 

00101101 10010001 11111110 01001101 
11010110 11110011 00101011 00101100 
10010000 00101011 11100110 10110011 
01100000 00111011 00101001 10101100 

01111011 10001001 11011110 11101101 
11011101 11010010 10011000 10001100 
11110001 10110110 01111100 01100000 
11110001 10000111 10110101 11010100 


00001100 01000101 11011010 00000000 
01101100 10010010 01110011 11101110 
01100000 00101001 00000110 01101011 
10010011 11100110 01010100 11111101 

11001000 10111101 00011111 10100011 
00110100 00110110 10111011 01010100 
00001010 01100111 11100001 00001111 
00101010 01111111 01011111 11111101 

01101110 00101000 11100111 11110001 
01101110 11111101 11100110 00100101 
01001010 10010111 10000101 00101011 
01111100 11000111 00111001 10101100 

01001001 00111001 00101011 00000010 
00001111 00110010 11101110 01010100 
01101111 10110000 11100111 10001100 
10011101 10110100 00011000 10111111 

00111110 00000010 01001000 01111010 
01110000 00101000 10100100 00010001 
01110101 10100100 11111001 01011101 
11100101 11110001 11101001 11111110 

01100111 00000101 11011001 01101110 
10011100 00011001 00111110 01010001 
00111000 00101101 00101110 01110100 
00100010 01010110 11001001 10111100 

00101101 10010001 11111110 01001101 
11010110 11110011 00101011 00101100 
10010000 00101011 11100110 10110011 
01100000 00111011 00101001 10101100 

01111011 10001001 11011110 11101101 
11011101 11010010 10011000 10001100 
11110001 10110110 01111100 01100000 
11110001 10000111 10110101 11010100 


00001100 01000101 11011010 00000000 
01101100 10010010 01110011 11101110 
01100000 00101001 00000110 01101011 
10010011 11100110 01010100 11111101 

11001000 10111101 00011111 10100011 
00110100 00110110 10111011 01010100 
00001010 01100111 11100001 00001111 
00101010 01111111 01011111 11111101 

01101110 00101000 11100111 11110001 
01101110 11111101 11100110 00100101 
01001010 10010111 10000101 00101011 
01111100 11000111 00111001 10101100 

01001001 00111001 00101011 00000010 
00001111 00110010 11101110 01010100 
01101111 10110000 11100111 10001100 
10011101 10110100 00011000 10111111 

00111110 00000010 01001000 01111010 
01110000 00101000 10100100 00010001 
01110101 10100100 11111001 01011101 
11100101 11110001 11101001 11111110 

01100111 00000101 11011001 01101110 
10011100 00011001 00111110 01010001 
00111000 00101101 00101110 01110100 
00100010 01010110 11001001 10111100 

00101101 10010001 11111110 01001101 
11010110 11110011 00101011 00101100 
10010000 00101011 11100110 10110011 
01100000 00111011 00101001 10101100 

01111011 10001001 11011110 11101101 
11011101 11010010 10011000 10001100 
11110001 10110110 01111100 01100000 
11110001 10000111 10110101 11010100 


00001100 01000101 11011010 00000000 
01101100 10010010 01110011 11101110 
01100000 00101001 00000110 01101011 
10010011 11100110 01010100 11111101 

11001000 10111101 00011111 10100011 
00110100 00110110 10111011 01010100 
00001010 01100111 11100001 00001111 
00101010 01111111 01011111 11111101 

01101110 00101000 11100111 11110001 
01101110 11111101 11100110 00100101 
01001010 10010111 10000101 00101011 
01111100 11000111 00111001 10101100 

01001001 00111001 00101011 00000010 
00001111 00110010 11101110 01010100 
01101111 10110000 11100111 10001100 
10011101 10110100 00011000 10111111 

00111110 00000010 01001000 01111010 
01110000 00101000 10100100 00010001 
01110101 10100100 11111001 01011101 
11100101 11110001 11101001 11111110 

01100111 00000101 11011001 01101110 
10011100 00011001 00111110 01010001 
00111000 00101101 00101110 01110100 
00100010 01010110 11001001 10111100 

00101101 10010001 11111110 01001101 
11010110 11110011 00101011 00101100 
10010000 00101011 11100110 10110011 
01100000 00111011 00101001 10101100 

01111011 10001001 11011110 11101101 
11011101 11010010 10011000 10001100 
11110001 10110110 01111100 01100000 
11110001 10000111 10110101 11010100 



00001100 01000101 11011010 00000000 
01101100 10010010 01110011 11101110 
01100000 00101001 00000110 01101011 
10010011 11100110 01010100 11111101 

11001000 10111101 00011111 10100011 
00110100 00110110 10111011 01010100 
00001010 01100111 11100001 00001111 
00101010 01111111 01011111 11111101 

01101110 00101000 11100111 11110001 
01101110 11111101 11100110 00100101 
01001010 10010111 10000101 00101011 
01111100 11000111 00111001 10101100 

01001001 00111001 00101011 00000010 
00001111 00110010 11101110 01010100 
01101111 10110000 11100111 10001100 
10011101 10110100 00011000 10111111 

00111110 00000010 01001000 01111010 
01110000 00101000 10100100 00010001 
01110101 10100100 11111001 01011101 
11100101 11110001 11101001 11111110 

01100111 00000101 11011001 01101110 
10011100 00011001 00111110 01010001 
00111000 00101101 00101110 01110100 
00100010 01010110 11001001 10111100 

00101101 10010001 11111110 01001101 
11010110 11110011 00101011 00101100 
10010000 00101011 11100110 10110011 
01100000 00111011 00101001 10101100 

01111011 10001001 11011110 11101101 
11011101 11010010 10011000 10001100 
11110001 10110110 01111100 01100000 
11110001 10000111 10110101 11010100 


00001100 01000101 11011010 00000000 
01101100 10010010 01110011 11101110 
01100000 00101001 00000110 01101011 
10010011 11100110 01010100 11111101 

11001000 10111101 00011111 10100011 
00110100 00110110 10111011 01010100 
00001010 01100111 11100001 00001111 
00101010 01111111 01011111 11111101 

01101110 00101000 11100111 11110001 
01101110 11111101 11100110 00100101 
01001010 10010111 10000101 00101011 
01111100 11000111 00111001 10101100 

01001001 00111001 00101011 00000010 
00001111 00110010 11101110 01010100 
01101111 10110000 11100111 10001100 
10011101 10110100 00011000 10111111 

00111110 00000010 01001000 01111010 
01110000 00101000 10100100 00010001 
01110101 10100100 11111001 01011101 
11100101 11110001 11101001 11111110 

01100111 00000101 11011001 01101110 
10011100 00011001 00111110 01010001 
00111000 00101101 00101110 01110100 
00100010 01010110 11001001 10111100 

00101101 10010001 11111110 01001101 
11010110 11110011 00101011 00101100 
10010000 00101011 11100110 10110011 
01100000 00111011 00101001 10101100 

01111011 10001001 11011110 11101101 
11011101 11010010 10011000 10001100 
11110001 10110110 01111100 01100000 
11110001 10000111 10110101 11010100 


00001100 01000101 11011010 00000000 
01101100 10010010 01110011 11101110 
01100000 00101001 00000110 01101011 
10010011 11100110 01010100 11111101 

11001000 10111101 00011111 10100011 
00110100 00110110 10111011 01010100 
00001010 01100111 11100001 00001111 
00101010 01111111 01011111 11111101 

01101110 00101000 11100111 11110001 
01101110 11111101 11100110 00100101 
01001010 10010111 10000101 00101011 
01111100 11000111 00111001 10101100 

01001001 00111001 00101011 00000010 
00001111 00110010 11101110 01010100 
01101111 10110000 11100111 10001100 
10011101 10110100 00011000 10111111 

00111110 00000010 01001000 01111010 
01110000 00101000 10100100 00010001 
01110101 10100100 11111001 01011101 
11100101 11110001 11101001 11111110 

01100111 00000101 11011001 01101110 
10011100 00011001 00111110 01010001 
00111000 00101101 00101110 01110100 
00100010 01010110 11001001 10111100 

00101101 10010001 11111110 01001101 
11010110 11110011 00101011 00101100 
10010000 00101011 11100110 10110011 
01100000 00111011 00101001 10101100 

01111011 10001001 11011110 11101101 
11011101 11010010 10011000 10001100 
11110001 10110110 01111100 01100000 
11110001 10000111 10110101 11010100 


00001100 01000101 11011010 00000000 
01101100 10010010 01110011 11101110 
01100000 00101001 00000110 01101011 
10010011 11100110 01010100 11111101 

11001000 10111101 00011111 10100011 
00110100 00110110 10111011 01010100 
00001010 01100111 11100001 00001111 
00101010 01111111 01011111 11111101 

01101110 00101000 11100111 11110001 
01101110 11111101 11100110 00100101 
01001010 10010111 10000101 00101011 
01111100 11000111 00111001 10101100 

01001001 00111001 00101011 00000010 
00001111 00110010 11101110 01010100 
01101111 10110000 11100111 10001100 
10011101 10110100 00011000 10111111 

00111110 00000010 01001000 01111010 
01110000 00101000 10100100 00010001 
01110101 10100100 11111001 01011101 
11100101 11110001 11101001 11111110 

01100111 00000101 11011001 01101110 
10011100 00011001 00111110 01010001 
00111000 00101101 00101110 01110100 
00100010 01010110 11001001 10111100 

00101101 10010001 11111110 01001101 
11010110 11110011 00101011 00101100 
10010000 00101011 11100110 10110011 
01100000 00111011 00101001 10101100 

01111011 10001001 11011110 11101101 
11011101 11010010 10011000 10001100 
11110001 10110110 01111100 01100000 
11110001 10000111 10110101 11010100 



00001100 01000101 11011010 00000000 
01101100 10010010 01110011 11101110 
01100000 00101001 00000110 01101011 
10010011 11100110 01010100 11111101 

11001000 10111101 00011111 10100011 
00110100 00110110 10111011 01010100 
00001010 01100111 11100001 00001111 
00101010 01111111 01011111 11111101 

01101110 00101000 11100111 11110001 
01101110 11111101 11100110 00100101 
01001010 10010111 10000101 00101011 
01111100 11000111 00111001 10101100 

01001001 00111001 00101011 00000010 
00001111 00110010 11101110 01010100 
01101111 10110000 11100111 10001100 
10011101 10110100 00011000 10111111 

00111110 00000010 01001000 01111010 
01110000 00101000 10100100 00010001 
01110101 10100100 11111001 01011101 
11100101 11110001 11101001 11111110 

01100111 00000101 11011001 01101110 
10011100 00011001 00111110 01010001 
00111000 00101101 00101110 01110100 
00100010 01010110 11001001 10111100 

00101101 10010001 11111110 01001101 
11010110 11110011 00101011 00101100 
10010000 00101011 11100110 10110011 
01100000 00111011 00101001 10101100 

01111011 10001001 11011110 11101101 
11011101 11010010 10011000 10001100 
11110001 10110110 01111100 01100000 
11110001 10000111 10110101 11010100 


00001100 01000101 11011010 00000000 
01101100 10010010 01110011 11101110 
01100000 00101001 00000110 01101011 
10010011 11100110 01010100 11111101 

11001000 10111101 00011111 10100011 
00110100 00110110 10111011 01010100 
00001010 01100111 11100001 00001111 
00101010 01111111 01011111 11111101 

01101110 00101000 11100111 11110001 
01101110 11111101 11100110 00100101 
01001010 10010111 10000101 00101011 
01111100 11000111 00111001 10101100 

01001001 00111001 00101011 00000010 
00001111 00110010 11101110 01010100 
01101111 10110000 11100111 10001100 
10011101 10110100 00011000 10111111 

00111110 00000010 01001000 01111010 
01110000 00101000 10100100 00010001 
01110101 10100100 11111001 01011101 
11100101 11110001 11101001 11111110 

01100111 00000101 11011001 01101110 
10011100 00011001 00111110 01010001 
00111000 00101101 00101110 01110100 
00100010 01010110 11001001 10111100 

00101101 10010001 11111110 01001101 
11010110 11110011 00101011 00101100 
10010000 00101011 11100110 10110011 
01100000 00111011 00101001 10101100 

01111011 10001001 11011110 11101101 
11011101 11010010 10011000 10001100 
11110001 10110110 01111100 01100000 
11110001 10000111 10110101 11010100 


00001100 01000101 11011010 00000000 
01101100 10010010 01110011 11101110 
01100000 00101001 00000110 01101011 
10010011 11100110 01010100 11111101 

11001000 10111101 00011111 10100011 
00110100 00110110 10111011 01010100 
00001010 01100111 11100001 00001111 
00101010 01111111 01011111 11111101 

01101110 00101000 11100111 11110001 
01101110 11111101 11100110 00100101 
01001010 10010111 10000101 00101011 
01111100 11000111 00111001 10101100 

01001001 00111001 00101011 00000010 
00001111 00110010 11101110 01010100 
01101111 10110000 11100111 10001100 
10011101 10110100 00011000 10111111 

00111110 00000010 01001000 01111010 
01110000 00101000 10100100 00010001 
01110101 10100100 11111001 01011101 
11100101 11110001 11101001 11111110 

01100111 00000101 11011001 01101110 
10011100 00011001 00111110 01010001 
00111000 00101101 00101110 01110100 
00100010 01010110 11001001 10111100 

00101101 10010001 11111110 01001101 
11010110 11110011 00101011 00101100 
10010000 00101011 11100110 10110011 
01100000 00111011 00101001 10101100 

01111011 10001001 11011110 11101101 
11011101 11010010 10011000 10001100 
11110001 10110110 01111100 01100000 
11110001 10000111 10110101 11010100 


00001100 01000101 11011010 00000000 
01101100 10010010 01110011 11101110 
01100000 00101001 00000110 01101011 
10010011 11100110 01010100 11111101 

11001000 10111101 00011111 10100011 
00110100 00110110 10111011 01010100 
00001010 01100111 11100001 00001111 
00101010 01111111 01011111 11111101 

01101110 00101000 11100111 11110001 
01101110 11111101 11100110 00100101 
01001010 10010111 10000101 00101011 
01111100 11000111 00111001 10101100 

01001001 00111001 00101011 00000010 
00001111 00110010 11101110 01010100 
01101111 10110000 11100111 10001100 
10011101 10110100 00011000 10111111 

00111110 00000010 01001000 01111010 
01110000 00101000 10100100 00010001 
01110101 10100100 11111001 01011101 
11100101 11110001 11101001 11111110 

01100111 00000101 11011001 01101110 
10011100 00011001 00111110 01010001 
00111000 00101101 00101110 01110100 
00100010 01010110 11001001 10111100 

00101101 10010001 11111110 01001101 
11010110 11110011 00101011 00101100 
10010000 00101011 11100110 10110011 
01100000 00111011 00101001 10101100 

01111011 10001001 11011110 11101101 
11011101 11010010 10011000 10001100 
11110001 10110110 01111100 01100000 
11110001 10000111 10110101 11010100 



00001100 01000101 11011010 00000000 
01101100 10010010 01110011 11101110 
01100000 00101001 00000110 01101011 
10010011 11100110 01010100 11111101 

11001000 10111101 00011111 10100011 
00110100 00110110 10111011 01010100 
00001010 01100111 11100001 00001111 
00101010 01111111 01011111 11111101 

01101110 00101000 11100111 11110001 
01101110 11111101 11100110 00100101 
01001010 10010111 10000101 00101011 
01111100 11000111 00111001 10101100 

01001001 00111001 00101011 00000010 
00001111 00110010 11101110 01010100 
01101111 10110000 11100111 10001100 
10011101 10110100 00011000 10111111 

00111110 00000010 01001000 01111010 
01110000 00101000 10100100 00010001 
01110101 10100100 11111001 01011101 
11100101 11110001 11101001 11111110 

01100111 00000101 11011001 01101110 
10011100 00011001 00111110 01010001 
00111000 00101101 00101110 01110100 
00100010 01010110 11001001 10111100 

00101101 10010001 11111110 01001101 
11010110 11110011 00101011 00101100 
10010000 00101011 11100110 10110011 
01100000 00111011 00101001 10101100 

01111011 10001001 11011110 11101101 
11011101 11010010 10011000 10001100 
11110001 10110110 01111100 01100000 
11110001 10000111 10110101 11010100 


00001100 01000101 11011010 00000000 
01101100 10010010 01110011 11101110 
01100000 00101001 00000110 01101011 
10010011 11100110 01010100 11111101 

11001000 10111101 00011111 10100011 
00110100 00110110 10111011 01010100 
00001010 01100111 11100001 00001111 
00101010 01111111 01011111 11111101 

01101110 00101000 11100111 11110001 
01101110 11111101 11100110 00100101 
01001010 10010111 10000101 00101011 
01111100 11000111 00111001 10101100 

01001001 00111001 00101011 00000010 
00001111 00110010 11101110 01010100 
01101111 10110000 11100111 10001100 
10011101 10110100 00011000 10111111 

00111110 00000010 01001000 01111010 
01110000 00101000 10100100 00010001 
01110101 10100100 11111001 01011101 
11100101 11110001 11101001 11111110 

01100111 00000101 11011001 01101110 
10011100 00011001 00111110 01010001 
00111000 00101101 00101110 01110100 
00100010 01010110 11001001 10111100 

00101101 10010001 11111110 01001101 
11010110 11110011 00101011 00101100 
10010000 00101011 11100110 10110011 
01100000 00111011 00101001 10101100 

01111011 10001001 11011110 11101101 
11011101 11010010 10011000 10001100 
11110001 10110110 01111100 01100000 
11110001 10000111 10110101 11010100 


00001100 01000101 11011010 00000000 
01101100 10010010 01110011 11101110 
01100000 00101001 00000110 01101011 
10010011 11100110 01010100 11111101 

11001000 10111101 00011111 10100011 
00110100 00110110 10111011 01010100 
00001010 01100111 11100001 00001111 
00101010 01111111 01011111 11111101 

01101110 00101000 11100111 11110001 
01101110 11111101 11100110 00100101 
01001010 10010111 10000101 00101011 
01111100 11000111 00111001 10101100 

01001001 00111001 00101011 00000010 
00001111 00110010 11101110 01010100 
01101111 10110000 11100111 10001100 
10011101 10110100 00011000 10111111 

00111110 00000010 01001000 01111010 
01110000 00101000 10100100 00010001 
01110101 10100100 11111001 01011101 
11100101 11110001 11101001 11111110 

01100111 00000101 11011001 01101110 
10011100 00011001 00111110 01010001 
00111000 00101101 00101110 01110100 
00100010 01010110 11001001 10111100 

00101101 10010001 11111110 01001101 
11010110 11110011 00101011 00101100 
10010000 00101011 11100110 10110011 
01100000 00111011 00101001 10101100 

01111011 10001001 11011110 11101101 
11011101 11010010 10011000 10001100 
11110001 10110110 01111100 01100000 
11110001 10000111 10110101 11010100 


00001100 01000101 11011010 00000000 
01101100 10010010 01110011 11101110 
01100000 00101001 00000110 01101011 
10010011 11100110 01010100 11111101 

11001000 10111101 00011111 10100011 
00110100 00110110 10111011 01010100 
00001010 01100111 11100001 00001111 
00101010 01111111 01011111 11111101 

01101110 00101000 11100111 11110001 
01101110 11111101 11100110 00100101 
01001010 10010111 10000101 00101011 
01111100 11000111 00111001 10101100 

01001001 00111001 00101011 00000010 
00001111 00110010 11101110 01010100 
01101111 10110000 11100111 10001100 
10011101 10110100 00011000 10111111 

00111110 00000010 01001000 01111010 
01110000 00101000 10100100 00010001 
01110101 10100100 11111001 01011101 
11100101 11110001 11101001 11111110 

01100111 00000101 11011001 01101110 
10011100 00011001 00111110 01010001 
00111000 00101101 00101110 01110100 
00100010 01010110 11001001 10111100 

00101101 10010001 11111110 01001101 
